<unk>	0
<s>	0
</s>	0
▃	0
▂	0
<sep>	0
<pad>	0
<mask>	0
<eod>	0
<eot>	0
▁,	-2.76245
▁的	-3.29982
▁。	-3.70801
▁	-3.98064
▁、	-4.49797
▁了	-4.59594
▁是	-4.88505
▁:	-4.89299
▁在	-4.91924
▁”	-5.0138
▁“	-5.01423
▁我	-5.35858
▁和	-5.36675
▁有	-5.57579
▁也	-5.63391
▁不	-5.64879
▁他	-5.69406
▁你	-5.72774
▁?	-5.81971
▁!	-5.87476
▁就	-5.87969
▁)	-5.92811
▁(	-5.93704
▁都	-5.96965
▁.	-6.01119
▁-	-6.02019
▁人	-6.02238
▁这	-6.07397
▁中	-6.07607
▁上	-6.0926
▁为	-6.17653
▁对	-6.19814
▁她	-6.26627
▁等	-6.27045
▁...	-6.2788
▁与	-6.32083
▁一个	-6.35009
▁说	-6.36305
▁;	-6.36721
▁年	-6.38642
▁要	-6.38707
▁3	-6.39335
▁到	-6.39756
▁着	-6.40593
▁将	-6.4379
▁一	-6.45883
▁大	-6.48702
▁我们	-6.48905
▁会	-6.50405
▁自己	-6.54549
▁而	-6.56528
▁那	-6.56879
▁月	-6.58
▁或	-6.58569
▁可以	-6.59777
▁被	-6.60527
▁没有	-6.62644
▁还	-6.63194
▁多	-6.64789
▁之	-6.65306
▁好	-6.6725
▁】	-6.69649
子	-6.70004
▁【	-6.70754
▁地	-6.71816
▁让	-6.7375
▁很	-6.74385
人	-6.75564
▁后	-6.77628
▁1	-6.79305
▁小	-6.80729
▁并	-6.81198
▁下	-6.82654
▁以	-6.83527
▁去	-6.84932
▁但	-6.85156
▁来	-6.85494
▁《	-6.85516
▁》	-6.85779
▁可	-6.85841
▁又	-6.87592
▁/	-6.8801
▁日	-6.8939
▁从	-6.90416
▁看	-6.90523
▁能	-6.90548
▁中国	-6.92102
▁时	-6.92205
▁什么	-6.93601
▁2	-6.9561
▁他们	-6.97735
▁新	-6.97762
▁把	-7.01205
▁做	-7.0132
▁这个	-7.0233
▁更	-7.0256
▁就是	-7.042
2	-7.04385
▁及	-7.05896
▁工作	-7.06297
▁给	-7.06446
▁公司	-7.07096
▁您	-7.07146
▁道	-7.07437
性	-7.07814
▁最	-7.15478
▁三	-7.15683
▁产品	-7.16031
▁已经	-7.17027
▁用	-7.18232
▁5	-7.18237
▁高	-7.19104
▁想	-7.19772
▁4	-7.21022
▁个	-7.21479
▁知道	-7.21992
▁服务	-7.24676
▁发展	-7.25035
▁快	-7.26105
▁进行	-7.27513
▁再	-7.29932
▁6	-7.30014
者	-7.30106
▁企业	-7.30785
▁得	-7.31778
▁于	-7.33377
▁不是	-7.33777
▁出	-7.34729
▁如果	-7.3543
▁使用	-7.35859
▁所	-7.37699
▁却	-7.38359
出	-7.40288
▁问题	-7.41646
▁现在	-7.41673
▁其	-7.41823
▁前	-7.42041
3	-7.42791
▁里	-7.43801
▁提供	-7.44297
▁过	-7.44745
于	-7.453
▁10	-7.4533
到	-7.45333
▁本	-7.45904
▁这样	-7.46087
▁没	-7.46396
▁吧	-7.46571
▁时间	-7.47171
▁·	-7.49148
▁还是	-7.49592
▁8	-7.50135
是	-7.50159
▁时候	-7.50165
▁外观	-7.50779
O	-7.50789
▁可能	-7.50877
▁吗	-7.51712
会	-7.51873
▁当	-7.52666
▁向	-7.53052
▁怎么	-7.53579
着	-7.54519
▁啊	-7.54539
▁走	-7.55441
▁因为	-7.55574
▁NO	-7.55673
▁才	-7.55715
▁性状	-7.55996
家	-7.56106
▁需要	-7.56143
▁由	-7.56362
上	-7.56511
▁如	-7.56978
▁请	-7.58268
▁分子量	-7.59304
▁只	-7.59749
▁但是	-7.59796
▁内	-7.61988
▁市场	-7.62674
▁已	-7.6277
▁水	-7.6297
来	-7.63205
▁呢	-7.63937
▁技术	-7.64465
▁这些	-7.64838
下	-7.65323
▁所以	-7.6551
化	-7.65894
▁管理	-7.66613
%	-7.66656
▁跟	-7.66712
▁该	-7.66764
▁通过	-7.66777
▁它	-7.68021
机	-7.69736
▁性	-7.71671
▁国家	-7.71967
▁天	-7.72041
▁信息	-7.72265
色	-7.73958
▁无	-7.74575
力	-7.74714
▁生产	-7.74738
前	-7.74907
▁开始	-7.75483
▁比	-7.75489
H	-7.76131
▁7	-7.76704
▁开	-7.76725
道	-7.77237
▁打	-7.7743
个	-7.77843
▁CAS	-7.78698
▁专业	-7.78956
▁老	-7.79068
地	-7.79114
长	-7.79908
▁不会	-7.82666
▁分	-7.82972
▁不能	-7.83545
▁情况	-7.83759
▁起来	-7.83768
头	-7.83788
▁网站	-7.84241
天	-7.84941
▁所有	-7.8578
▁一些	-7.86081
▁全	-7.86188
点	-7.86229
▁要求	-7.86299
▁其他	-7.86535
为	-7.8665
▁不过	-7.87555
▁同时	-7.88077
▁很多	-7.88369
▁带	-7.88604
▁安全	-7.89457
▁氯化	-7.89522
▁还有	-7.89869
▁事	-7.89873
儿	-7.89884
▁以及	-7.89957
区	-7.90006
▁每	-7.90104
▁大家	-7.90253
▁吃	-7.90692
▁两	-7.9099
▁9	-7.91165
市	-7.91396
▁们	-7.91468
▁那么	-7.91516
▁非常	-7.91574
▁北京	-7.91649
▁活动	-7.91749
法	-7.92234
▁0	-7.92604
▁世界	-7.92774
里	-7.93018
▁元	-7.93217
▁主要	-7.93749
▁只是	-7.94053
▁重要	-7.94374
▁自	-7.94421
有	-7.94615
▁李	-7.94945
▁计划	-7.94989
的	-7.95413
▁看到	-7.959
▁像	-7.96191
▁这么	-7.96212
器	-7.96373
▁生活	-7.96405
▁便	-7.96483
▁任何	-7.96578
▁之后	-7.96858
去	-7.96873
▁相关	-7.96883
▁_	-7.96968
▁内容	-7.97072
▁—	-7.9712
▁正	-7.97368
▁一定	-7.97555
▁成为	-7.97814
▁出现	-7.97837
▁王	-7.97967
▁"	-7.97983
▁虽然	-7.98384
▁建设	-7.98461
度	-7.98525
▁设计	-7.98605
▁系统	-7.98844
▁点	-7.99885
▁用于	-8.00856
网	-8.00983
▁对于	-8.01188
▁发现	-8.01268
▁项目	-8.01276
▁使	-8.01523
▁出来	-8.0169
▁游戏	-8.02084
▁这种	-8.02194
行	-8.02315
▁选择	-8.02388
▁能够	-8.02541
▁张	-8.02578
▁20	-8.02615
▁硝酸	-8.03379
▁万	-8.03527
线	-8.03533
▁平台	-8.03615
▁结晶体	-8.04145
▁起	-8.043
▁溶于	-8.04304
说	-8.04462
▁说明	-8.04524
中	-8.04583
▁经济	-8.05076
然	-8.05119
▁二	-8.05312
位	-8.05394
起	-8.05713
▁此	-8.05829
▁一下	-8.06242
部	-8.06851
▁第一	-8.06939
▁听	-8.07
▁美国	-8.07083
▁太	-8.0728
大	-8.07314
▁[	-8.07502
▁孩子	-8.08148
▁不同	-8.08186
▁一种	-8.08251
▁这里	-8.08585
▁12	-8.08727
▁国际	-8.08829
生	-8.09408
量	-8.09501
▁而且	-8.09615
▁有些	-8.09616
得	-8.09746
▁各	-8.09802
成	-8.09853
▁总	-8.09874
▁网络	-8.09896
▁先	-8.09977
▁一般	-8.10109
▁你们	-8.108
▁一样	-8.11191
▁作为	-8.11256
▁方式	-8.11539
▁]	-8.12108
▁外	-8.12224
心	-8.12514
▁名	-8.1266
场	-8.12757
手	-8.1299
▁潮解	-8.13399
▁一直	-8.13833
▁易溶	-8.13894
▁觉得	-8.14365
▁目前	-8.14383
▁如何	-8.15029
▁指	-8.15445
▁网	-8.15649
▁直接	-8.15653
▁至	-8.15688
▁两个	-8.15958
▁为了	-8.16052
▁行业	-8.16365
▁表示	-8.16439
▁金	-8.1649
▁看着	-8.1682
▁社会	-8.16904
▁教育	-8.17021
过	-8.17034
▁应该	-8.17715
▁不要	-8.17717
▁制造	-8.17944
▁事情	-8.18183
▁心	-8.18196
水	-8.18665
▁用途	-8.18754
▁叫	-8.18938
▁白色	-8.19132
▁若	-8.19178
▁文化	-8.19984
▁乙醇	-8.20008
▁试剂	-8.20577
▁回	-8.20691
▁研究	-8.20737
▁然后	-8.21326
▁一起	-8.21335
用	-8.21371
▁谁	-8.21468
▁地方	-8.21618
▁11	-8.21866
▁四	-8.21875
物	-8.22102
▁其中	-8.22178
▁可是	-8.22352
车	-8.2243
▁用户	-8.22526
▁真的	-8.22991
▁长	-8.2342
▁连	-8.2352
▁车	-8.23545
▁学习	-8.23573
员	-8.23591
▁影响	-8.23824
▁能力	-8.23868
▁或者	-8.24029
▁的话	-8.24794
▁于水	-8.24962
▁方面	-8.25212
开	-8.25305
好	-8.25546
▁化学试剂	-8.25708
▁找	-8.25842
一	-8.26002
▁站	-8.26028
▁品牌	-8.26259
▁白	-8.26502
▁学生	-8.27055
▁发生	-8.2708
▁则	-8.27287
▁陈	-8.27553
名	-8.27819
▁只有	-8.27945
▁手	-8.28149
▁那个	-8.28154
▁家	-8.28241
▁笑	-8.28372
▁第	-8.28449
▁根据	-8.28589
▁投资	-8.28644
口	-8.28658
▁包括	-8.28669
▁30	-8.28712
期	-8.28759
▁价格	-8.28797
▁具有	-8.28822
▁爱	-8.29032
▁一次	-8.29064
▁手机	-8.29074
▁数据	-8.29142
少	-8.29271
事	-8.29306
▁了解	-8.2936
▁说道	-8.29436
▁感觉	-8.29936
次	-8.30075
▁有限公司	-8.30132
气	-8.30424
▁今天	-8.31079
▁因	-8.31214
▁以上	-8.31317
入	-8.31481
▁分析	-8.31623
▁比较	-8.31733
▁进	-8.31745
▁神	-8.32245
局	-8.32355
品	-8.32358
▁成	-8.32393
▁问	-8.3264
▁喜欢	-8.3278
▁东西	-8.33616
方	-8.33705
▁中心	-8.34045
▁发	-8.34155
▁女	-8.34222
▁进入	-8.34375
▁买	-8.34376
住	-8.34404
▁见	-8.34849
▁处理	-8.35039
▁N	-8.35329
山	-8.35425
▁希望	-8.35596
年	-8.35621
▁2018	-8.36154
▁不断	-8.36254
▁主	-8.36419
▁应	-8.36555
面	-8.36938
文	-8.37169
▁实现	-8.37436
处	-8.37637
级	-8.37707
料	-8.37955
▁*	-8.37984
▁死	-8.3829
▁最后	-8.38312
▁较	-8.38438
▁氧化	-8.3863
▁城市	-8.39591
▁强	-8.39785
▁设备	-8.40004
▁个人	-8.40187
主	-8.40439
▁认为	-8.4044
▁客户	-8.40465
▁送	-8.40571
率	-8.4088
▁其实	-8.40895
▁科技	-8.41111
小	-8.41145
式	-8.41318
▁合作	-8.41481
▁低	-8.41759
之	-8.42079
路	-8.42217
▁号	-8.42385
▁完成	-8.4249
▁无法	-8.42606
在	-8.42804
▁林	-8.42864
▁自然	-8.42916
要	-8.43003
▁天空	-8.43102
▁美	-8.4315
▁继续	-8.4323
▁支持	-8.43248
▁因此	-8.43345
▁周	-8.43449
▁环境	-8.43707
▁必须	-8.43718
不	-8.43736
国	-8.43768
▁组织	-8.43874
▁C	-8.43935
▁五	-8.44025
▁按	-8.44068
▁刘	-8.44107
▁门	-8.44166
▁真	-8.44263
▁这是	-8.44292
▁方法	-8.44413
▁功能	-8.44711
▁黑	-8.44871
▁未	-8.45119
▁据	-8.45302
商	-8.45358
▁商品	-8.45594
▁原	-8.45615
▁全国	-8.46004
后	-8.46041
▁销售	-8.46047
▁获得	-8.46196
▁同	-8.46365
▁材料	-8.46439
▁过程	-8.46497
▁完全	-8.46651
门	-8.47086
▁密闭	-8.47353
▁称	-8.47386
▁上海	-8.47428
▁由于	-8.47458
▁汽车	-8.47706
定	-8.47718
能	-8.47827
▁仍	-8.47932
▁结果	-8.48211
▁甚至	-8.48534
▁创新	-8.48797
▁阿	-8.48801
▁那些	-8.4881
▁保存	-8.48818
城	-8.49123
▁学校	-8.49672
▁提高	-8.49837
书	-8.50119
▁一点	-8.5012
▁部落	-8.50416
师	-8.50504
金	-8.50878
▁保护	-8.51038
外	-8.51043
▁双	-8.51087
▁特别	-8.51237
日	-8.51277
▁各种	-8.51282
▁路	-8.51528
▁朋友	-8.51806
▁推	-8.51824
▁均	-8.52103
▁A	-8.52346
▁相	-8.52368
▁得到	-8.52382
▁工业	-8.52558
▁控制	-8.52612
平	-8.52879
▁拿	-8.52914
▁身体	-8.53223
体	-8.53476
▁粉末	-8.53558
▁花	-8.53806
▁放	-8.5385
▁干	-8.54062
▁记者	-8.5413
▁玩	-8.54135
▁即	-8.54184
明	-8.54207
风	-8.54381
▁红	-8.54574
▁2019	-8.54579
▁~	-8.54657
声	-8.54761
▁集团	-8.55158
▁产业	-8.55185
▁提升	-8.55588
▁法	-8.55641
动	-8.55711
意	-8.5594
▁倒	-8.55952
▁正在	-8.56014
▁者	-8.56159
▁重	-8.56437
身	-8.56488
▁稀土	-8.56518
▁一声	-8.5655
▁飞	-8.56722
▁应用	-8.56963
▁国内	-8.57067
▁工程	-8.57146
▁别	-8.57344
▁存在	-8.57388
▁下载	-8.57552
▁过去	-8.57574
▁质量	-8.57707
▁副	-8.57708
▁拥有	-8.57804
▁资料	-8.57996
▁+	-8.58204
时	-8.58317
店	-8.5851
▁突然	-8.58587
▁市	-8.58656
4	-8.58714
▁yam	-8.58875
▁人员	-8.59069
▁今年	-8.59271
▁15	-8.59783
▁注意	-8.59829
▁关系	-8.59955
▁标准	-8.60073
军	-8.60133
▁达到	-8.60306
▁政府	-8.6037
光	-8.60433
▁发布	-8.60464
▁代表	-8.60481
▁钱	-8.60577
▁云	-8.60646
▁需求	-8.60649
▁采用	-8.60663
斯	-8.60944
▁基础	-8.60956
县	-8.61134
▁为什么	-8.61137
▁健康	-8.61185
▁几	-8.61254
▁交易	-8.61351
▁部分	-8.61388
▁政策	-8.61673
▁只要	-8.61844
发	-8.61967
▁早	-8.6214
▁如此	-8.62344
条	-8.62532
▁黄	-8.62544
▁锛	-8.63051
▁彩	-8.63113
▁无色	-8.63209
▁生	-8.6349
见	-8.6352
▁之间	-8.63568
▁接	-8.63623
▁一切	-8.63678
▁日本	-8.63763
▁关于	-8.63812
▁历史	-8.64046
▁难	-8.64048
▁整个	-8.64391
▁第三	-8.64528
▁规定	-8.6473
室	-8.64805
▁单位	-8.64964
▁声音	-8.65051
▁空间	-8.65158
队	-8.65343
德	-8.65354
▁业务	-8.65386
|	-8.65614
▁话	-8.65649
▁是否	-8.65673
▁身	-8.65804
▁国	-8.6592
▁加	-8.66016
▁解决	-8.66138
▁当然	-8.66205
▁全球	-8.66245
云	-8.66374
▁准备	-8.66445
▁>	-8.66463
▁受	-8.66622
▁第二	-8.66696
▁曾	-8.66792
▁精神	-8.66829
▁成功	-8.67051
▁视频	-8.67177
间	-8.67335
▁非	-8.67417
▁基本	-8.67455
▁杨	-8.67535
▁身上	-8.67687
▁经营	-8.6779
▁介绍	-8.67876
▁海	-8.67965
▁最大	-8.68189
▁T	-8.68748
▁50	-8.69245
▁’	-8.69339
▁马	-8.69377
▁来说	-8.69621
给	-8.69625
▁‘	-8.69633
▁除了	-8.70209
▁在线	-8.70359
▁显示	-8.70734
利	-8.70975
服	-8.71037
件	-8.71156
▁告诉	-8.71217
▁机构	-8.71248
▁增加	-8.7137
▁有关	-8.71455
▁作用	-8.71949
▁属	-8.7202
▁方	-8.7206
▁女人	-8.72101
▁利用	-8.72146
▁区	-8.72182
界	-8.72398
▁完	-8.72406
▁效果	-8.72503
▁法律	-8.72567
▁保证	-8.72624
▁旅游	-8.72711
▁参加	-8.7276
笑	-8.72778
台	-8.72898
▁跑	-8.72969
▁开展	-8.73001
▁帮	-8.73078
▁经	-8.73203
▁会员	-8.73226
▁注册	-8.7347
龙	-8.73948
▁许多	-8.73967
▁全面	-8.7399
▁越	-8.74105
▁更加	-8.74248
公司	-8.74411
感	-8.74488
▁18	-8.74655
▁经过	-8.74657
片	-8.74697
▁经验	-8.74749
▁共	-8.74765
▁减	-8.74903
▁未来	-8.74922
▁格	-8.75025
▁领域	-8.75123
▁大学	-8.75181
▁几个	-8.75381
▁清	-8.75426
▁帮助	-8.75504
▁产生	-8.75533
学	-8.75575
全	-8.75587
▁以后	-8.75824
字	-8.76015
▁决定	-8.76195
▁原因	-8.7641
费	-8.76443
院	-8.76494
月	-8.76529
作	-8.76685
▁2017	-8.76905
▁约	-8.77175
▁里面	-8.77193
▁少	-8.77205
▁增长	-8.77213
▁联系	-8.77316
▁十分	-8.77379
▁建立	-8.77442
花	-8.77656
▁光	-8.77732
▁岁	-8.77744
▁苏	-8.77771
款	-8.78007
▁醋酸	-8.78029
▁住	-8.78074
▁头	-8.78119
▁气	-8.78133
单	-8.78316
▁官方	-8.78426
▁形成	-8.7857
▁多少	-8.78751
▁涓	-8.78865
友	-8.78997
▁随着	-8.79179
▁简单	-8.79195
▁时代	-8.79207
▁软件	-8.79243
▁新闻	-8.79348
▁带来	-8.79431
▁全部	-8.79446
▁选	-8.79484
▁16	-8.79517
战	-8.79583
▁男	-8.7966
▁过来	-8.79686
▁微	-8.79724
▁关注	-8.79772
▁玩家	-8.79805
妈	-8.79848
▁免费	-8.79963
▁责任	-8.80039
▁想要	-8.80099
▁开发	-8.80113
华	-8.80206
▁操作	-8.80329
样	-8.80361
▁写	-8.80425
▁综合	-8.80684
▁心中	-8.80781
章	-8.8084
▁面	-8.80867
▁男人	-8.80906
▁级	-8.8091
▁医院	-8.80965
▁25	-8.80983
▁容易	-8.81077
▁有效	-8.81156
业	-8.81277
赛	-8.81442
▁老师	-8.81506
▁心里	-8.81647
王	-8.818
▁需	-8.81811
▁紝	-8.81841
▁根本	-8.8188
▁电话	-8.8192
▁目标	-8.81987
钱	-8.82054
▁提出	-8.82101
▁西	-8.82199
▁电影	-8.8226
型	-8.82268
▁风	-8.8228
▁哪	-8.82491
▁似乎	-8.82526
同	-8.82684
▁按照	-8.827
神	-8.82714
▁造成	-8.82783
▁交	-8.8282
▁且	-8.82856
▁资源	-8.82888
边	-8.82973
▁教	-8.83079
价	-8.83165
▁米	-8.83178
▁龙	-8.83191
▁机会	-8.83259
图	-8.83427
▁香港	-8.83543
▁人民	-8.83575
多	-8.83601
近	-8.83689
▁赵	-8.83758
▁接受	-8.83822
▁培训	-8.83856
▁地区	-8.83858
▁只能	-8.83868
▁不少	-8.83905
▁力量	-8.83921
板	-8.84164
▁近	-8.84211
▁拉	-8.84268
▁申请	-8.84277
▁杀	-8.84528
内	-8.84562
▁金融	-8.84581
▁超过	-8.84633
▁学	-8.84885
▁看看	-8.85068
号	-8.85102
▁小时	-8.85257
▁含	-8.85505
▁条	-8.85589
▁才能	-8.85718
▁处	-8.85777
▁转	-8.85814
▁冷	-8.85816
底	-8.85851
C	-8.8587
话	-8.85903
▁部门	-8.85932
▁职业	-8.85955
▁变	-8.86133
种	-8.86201
林	-8.86555
美	-8.8656
▁轻	-8.86645
本	-8.86845
▁坚持	-8.86893
制	-8.86899
▁治疗	-8.86956
▁坐	-8.87181
尔	-8.8727
站	-8.87275
进	-8.87299
数	-8.87311
▁热	-8.87318
权	-8.87321
▁包	-8.87562
▁领导	-8.87572
▁山	-8.87663
▁传统	-8.877
剂	-8.87734
及	-8.87748
▁积极	-8.87788
不是	-8.87828
房	-8.87981
▁行为	-8.88117
▁以下	-8.88124
言	-8.88154
▁推荐	-8.88232
类	-8.88325
▁有人	-8.88334
项	-8.88375
▁妈	-8.88505
▁范围	-8.88554
▁行	-8.88575
▁任务	-8.88835
▁w	-8.88918
▁最新	-8.88987
▁供应	-8.89136
▁叶	-8.89201
海	-8.89319
▁之一	-8.89333
▁酒店	-8.89464
▁建筑	-8.89669
▁眼睛	-8.89756
▁办法	-8.89949
▁重点	-8.89995
▁真正	-8.90017
▁单	-8.90047
▁建议	-8.90157
▁人们	-8.90249
▁系列	-8.90262
▁现场	-8.90279
▁并且	-8.90349
▁安	-8.90354
▁字	-8.90454
值	-8.90661
▁离开	-8.90857
▁收	-8.91016
▁持续	-8.91088
▁购买	-8.91104
▁亿元	-8.9111
▁口	-8.91161
如	-8.91171
掉	-8.91375
强	-8.91457
▁电子	-8.91504
▁脸	-8.91561
▁实施	-8.91719
▁智能	-8.91807
▁快速	-8.91954
▁期	-8.91996
快	-8.92256
▁我国	-8.9227
▁下来	-8.92406
语	-8.92508
▁剑	-8.92695
▁两人	-8.9275
▁省	-8.92765
▁B	-8.92926
▁加强	-8.93086
星	-8.93413
▁负责	-8.93436
▁首	-8.93464
▁「	-8.93549
形	-8.93591
▁管	-8.9362
▁竟然	-8.93694
▁房	-8.9374
元	-8.93838
重	-8.93991
▁表现	-8.93996
▁稳定	-8.94003
▁成立	-8.94281
▁互联网	-8.94355
块	-8.94363
▁喝	-8.94477
▁达	-8.94601
▁保持	-8.94675
情	-8.94737
卡	-8.94798
安	-8.95023
▁不仅	-8.9508
▁对方	-8.95091
眼	-8.95196
▁基金	-8.95229
▁公	-8.95291
▁共同	-8.95327
▁远	-8.9535
▁进一步	-8.95437
以	-8.95553
▁越来越	-8.95598
▁模式	-8.95697
▁100	-8.9573
▁台湾	-8.95749
▁导致	-8.95793
▁2020	-8.95802
▁这次	-8.95847
克	-8.95926
▁相信	-8.95975
▁24	-8.96102
▁银行	-8.96102
▁图	-8.96168
▁球	-8.96378
病	-8.96397
▁铈	-8.96485
▁包装	-8.96846
▁报告	-8.96904
了	-8.96927
▁条件	-8.97003
▁六	-8.97205
▁最好	-8.97231
▁类	-8.97326
▁会议	-8.97371
▁来自	-8.9746
▁之中	-8.97489
▁人才	-8.9749
▁媒体	-8.97506
▁文	-8.97614
▁南	-8.97754
▁入	-8.97862
▁穿	-8.97901
▁专	-8.97945
▁硫酸	-8.97998
▁具体	-8.98059
▁吴	-8.98087
往	-8.98097
▁当时	-8.98238
▁大量	-8.98273
▁某	-8.98505
▁版	-8.98599
带	-8.98709
▁每个	-8.98782
状	-8.9892
▁明	-8.98923
▁齐	-8.98975
流	-8.99047
▁商	-8.99111
▁别人	-8.99127
管	-8.99227
▁直	-8.99241
▁」	-8.99309
▁17	-8.99429
▁刚	-8.99431
▁占	-8.99478
▁努力	-8.99551
▁终于	-8.99734
园	-8.99844
▁结构	-9.00042
▁推进	-9.00173
▁化合物	-9.00218
▁东	-9.00485
▁参与	-9.00493
建	-9.00616
▁大发	-9.00673
▁七	-9.00881
▁安装	-9.00911
▁作	-9.00925
▁有点	-9.00998
▁方向	-9.01084
▁娱乐	-9.01134
高	-9.01159
报	-9.01193
▁战	-9.01285
▁目的	-9.01301
▁专家	-9.01382
▁19	-9.01424
▁关键	-9.01518
节	-9.0152
▁及时	-9.01672
▁团队	-9.01698
▁实力	-9.01786
宝	-9.01802
▁资金	-9.01877
▁找到	-9.01956
▁讲	-9.01989
▁13	-9.02192
▁S	-9.02256
G	-9.02323
▁不错	-9.02345
马	-9.02382
▁火	-9.02427
▁合	-9.02445
▁时时	-9.02477
▁不可	-9.02537
▁运动	-9.0265
▁体验	-9.02669
▁风险	-9.02757
▁一家	-9.0286
▁详细	-9.02975
达	-9.02977
▁卡	-9.03032
▁P	-9.03071
▁章	-9.031
▁情	-9.03222
▁保障	-9.03415
▁平	-9.03511
▁受到	-9.03526
▁变化	-9.0354
称	-9.03647
▁血	-9.03678
▁左右	-9.03694
石	-9.03801
▁肯定	-9.03847
具	-9.03866
▁另	-9.03964
▁明显	-9.0401
▁万元	-9.04071
取	-9.04113
▁明白	-9.04143
▁真是	-9.04229
特	-9.04452
▁14	-9.04599
▁村	-9.04655
▁取得	-9.04692
此	-9.04692
▁回来	-9.04773
▁彩票	-9.04773
▁不好	-9.04824
▁作品	-9.049
所	-9.04921
▁机	-9.04968
望	-9.04969
球	-9.05081
▁生命	-9.05087
世	-9.05097
▁作者	-9.05139
▁家庭	-9.05322
▁三个	-9.0535
通	-9.05596
▁盐	-9.05653
▁检查	-9.05761
▁几乎	-9.06012
势	-9.06019
▁交流	-9.06036
▁超	-9.06245
▁另外	-9.06257
▁再次	-9.06298
▁秦	-9.06315
▁正常	-9.06428
▁规律	-9.06501
女	-9.06582
▁不知	-9.06632
▁深	-9.06692
▁速度	-9.06792
▁推动	-9.06918
▁通	-9.06975
▁自动	-9.07093
▁听到	-9.07145
落	-9.0729
知	-9.07344
▁阅读	-9.07385
▁核心	-9.07511
▁艺术	-9.07577
▁特色	-9.07635
▁规范	-9.0766
▁优势	-9.077
▁换	-9.07757
▁位置	-9.07764
▁哦	-9.07827
▁优质	-9.07881
版	-9.07886
▁罗	-9.07907
▁半	-9.08091
▁每天	-9.08141
▁城	-9.08145
▁古	-9.08209
▁教学	-9.08215
▁间	-9.08308
▁传奇	-9.08324
▁衣	-9.08396
▁北	-9.08442
▁Y	-9.08468
▁么	-9.08519
▁铁	-9.08524
▁价值	-9.08613
▁通知	-9.08623
▁石	-9.08702
▁亦	-9.08759
▁厂家	-9.08765
▁比赛	-9.08784
▁次	-9.08848
▁期间	-9.09054
▁忽	-9.09175
▁水平	-9.09377
▁一眼	-9.09549
▁酸	-9.09597
▁消息	-9.09629
▁于是	-9.09653
▁钕	-9.09711
▁一年	-9.09723
货	-9.09804
▁医疗	-9.09819
▁台	-9.09979
士	-9.10162
▁如今	-9.10179
▁定	-9.10351
▁正式	-9.10362
▁制作	-9.10378
▁调整	-9.10381
影	-9.10434
▁冲	-9.10441
▁绝对	-9.1046
▁韩	-9.10493
▁最终	-9.10582
▁分别	-9.10801
▁往	-9.10867
▁电	-9.1109
爱	-9.11092
▁不到	-9.11113
▁纯	-9.11133
飞	-9.11157
▁以来	-9.11226
▁实际	-9.1123
合	-9.1124
▁线	-9.11287
▁21	-9.1132
▁不用	-9.11323
▁政治	-9.11385
▁余	-9.11454
▁研发	-9.11621
▁师	-9.11901
▁此时	-9.11992
▁更是	-9.12046
▁却是	-9.12158
玉	-9.12186
▁改革	-9.12282
分	-9.12316
▁战略	-9.1248
死	-9.12541
▁消费	-9.12668
▁眼	-9.12713
▁解	-9.1279
▁以为	-9.12815
▁銆	-9.12837
▁普通	-9.12932
▁一边	-9.12949
剑	-9.13019
实	-9.1306
▁一天	-9.13065
▁身边	-9.13424
▁面前	-9.13462
▁特	-9.13501
▁体育	-9.13513
▁到底	-9.1354
▁提	-9.13549
▁2016	-9.1355
▁何	-9.13641
▁病	-9.13643
▁知识	-9.13721
▁青	-9.13726
▁来到	-9.14152
▁改变	-9.14284
▁中央	-9.14412
▁说话	-9.14461
▁制度	-9.14496
▁com	-9.14543
▁脸上	-9.14754
向	-9.14909
▁华	-9.14916
领	-9.15001
▁靠	-9.15174
▁面对	-9.15234
▁原来	-9.15276
▁八	-9.1529
▁一位	-9.15441
工	-9.15445
▁极	-9.1564
▁同意	-9.15703
厅	-9.15748
▁区域	-9.15932
▁不敢	-9.15975
▁钐	-9.15996
▁抓	-9.16028
案	-9.1609
兵	-9.16118
▁调查	-9.16135
阳	-9.16323
民	-9.16405
▁安排	-9.16506
▁考虑	-9.16575
▁化	-9.16592
▁40	-9.16599
源	-9.16674
例	-9.16678
▁哪里	-9.16706
拉	-9.16889
▁故事	-9.16904
▁附	-9.17136
▁方便	-9.17164
▁徐	-9.17186
▁九	-9.17368
▁压力	-9.17439
▁一条	-9.17453
▁打造	-9.17636
乐	-9.17781
▁反	-9.1781
▁电脑	-9.17843
堂	-9.1789
▁状态	-9.179
▁严重	-9.18051
层	-9.1808
▁想到	-9.18179
▁咨询	-9.18252
▁科学	-9.18252
▁酒	-9.18256
▁结合	-9.18264
▁板	-9.18315
▁消费者	-9.18373
▁型	-9.18376
步	-9.18451
▁文件	-9.18493
▁除	-9.18555
▁图片	-9.18567
▁满足	-9.18632
▁良好	-9.18677
股	-9.18761
味	-9.18819
▁支付	-9.18859
钇	-9.18974
教	-9.18985
▁加工	-9.19155
▁朝	-9.1918
盘	-9.19279
▁就算	-9.19312
▁分享	-9.19454
▁最高	-9.1948
▁然而	-9.19581
▁唐	-9.19683
▁#	-9.19753
组	-9.19778
▁确定	-9.19953
▁做好	-9.19965
白	-9.19965
质	-9.20049
▁成本	-9.20083
▁落	-9.20132
▁商业	-9.20197
▁不得	-9.206
▁拍	-9.20615
s	-9.20696
表	-9.20712
三	-9.2076
▁退	-9.20807
▁长期	-9.20942
▁以前	-9.21155
▁党	-9.21187
▁调	-9.21301
▁好像	-9.2143
▁铒	-9.2153
米	-9.2164
空	-9.21805
▁行动	-9.21859
▁尤其	-9.21898
▁抱	-9.21908
▁学院	-9.2192
▁肉	-9.21976
▁出去	-9.22166
团	-9.22194
▁同样	-9.22195
▁交通	-9.22202
无	-9.22435
校	-9.22458
▁為	-9.22473
▁木	-9.22495
▁赛	-9.22502
▁客	-9.22628
▁体系	-9.22634
▁广告	-9.22689
▁圣	-9.22784
▁更好	-9.228
▁28	-9.22977
系统	-9.2306
▁不想	-9.23119
▁规划	-9.2312
▁镝	-9.23174
走	-9.23417
角	-9.23569
▁先生	-9.23672
信	-9.2368
▁生态	-9.23717
▁魔	-9.23778
▁还要	-9.23886
▁大小	-9.24192
油	-9.2428
▁文章	-9.2431
▁执行	-9.24339
▁短	-9.24529
▁真实	-9.24862
▁思想	-9.24893
完	-9.24938
州	-9.24979
▁仅	-9.25106
回	-9.25127
▁茶	-9.25128
▁员工	-9.25163
▁样子	-9.25182
清	-9.25256
▁方案	-9.254
▁镧	-9.25538
▁攻击	-9.25584
村	-9.25627
红	-9.25757
▁程度	-9.25849
▁23	-9.25874
视	-9.25891
▁有着	-9.25928
展	-9.25967
▁丰富	-9.26023
起来	-9.26144
▁&#	-9.26163
而	-9.26279
▁陆	-9.26295
▁易	-9.2634
▁彩神	-9.26343
▁书	-9.26396
▁M	-9.26397
▁促进	-9.26486
▁百	-9.26584
▁患者	-9.26608
▁一句	-9.26639
▁小说	-9.26685
包	-9.2671
▁移动	-9.26714
▁认识	-9.26781
▁22	-9.26895
问	-9.26919
▁清楚	-9.27031
▁加入	-9.27032
药	-9.27044
立	-9.27065
▁主题	-9.27105
▁沈	-9.27161
▁既	-9.27299
▁望	-9.27317
▁相对	-9.27328
座	-9.27335
▁适合	-9.27353
牌	-9.27425
▁费用	-9.27437
大学	-9.27524
新	-9.27599
▁考试	-9.27632
▁保	-9.27704
▁巨大	-9.27722
▁形式	-9.27729
灵	-9.27777
▁强大	-9.27778
▁公开	-9.27854
▁差	-9.27863
▁问道	-9.27896
▁依	-9.27912
▁指导	-9.28047
▁人类	-9.28108
▁b	-9.28199
▁多年	-9.2821
▁精	-9.2824
▁组	-9.28285
▁确保	-9.2837
▁蓝	-9.2839
▁取	-9.28576
系	-9.28584
▁十	-9.28825
▁上市	-9.28861
▁～	-9.28878
▁空	-9.29158
▁传	-9.2924
应	-9.29318
▁官网	-9.29335
▁灵	-9.29352
火	-9.2936
轮	-9.2938
相	-9.29389
▁创业	-9.29397
科	-9.29464
▁来源	-9.29613
▁卖	-9.29661
▁针对	-9.29707
▁论坛	-9.29727
▁很大	-9.29859
程	-9.29968
▁环保	-9.29979
1	-9.30048
▁莫	-9.30147
▁打开	-9.30527
▁实在	-9.30694
装	-9.30778
▁网上	-9.30782
▁留	-9.30809
▁结束	-9.30864
▁宣传	-9.30955
▁D	-9.31003
▁升级	-9.31003
▁改	-9.31069
▁宋	-9.31082
▁啦	-9.31126
▁物	-9.31128
二	-9.31129
▁惊	-9.3119
格	-9.3132
▁增	-9.31355
楼	-9.31439
现	-9.31457
▁欢迎	-9.31519
▁借	-9.31567
▁毕竟	-9.31586
满	-9.31636
客	-9.31844
▁数	-9.31914
想	-9.31983
▁教师	-9.32021
届	-9.3203
怕	-9.32108
比	-9.3213
▁居然	-9.32143
▁看来	-9.32189
▁60	-9.32193
▁夜	-9.32196
▁浜	-9.32251
▁下面	-9.32268
▁搭	-9.32273
Cl	-9.32341
▁仙	-9.32374
▁开奖	-9.32381
▁不管	-9.32419
▁代理	-9.32477
▁维护	-9.32508
▁量	-9.32563
▁重大	-9.32589
▁银	-9.32594
▁最近	-9.32606
▁信	-9.32709
▁充分	-9.328
▁优秀	-9.32813
▁完善	-9.3283
▁报道	-9.32845
▁引起	-9.32909
▁分钟	-9.32945
▁运营	-9.32977
▁首先	-9.33082
经	-9.33089
▁变得	-9.33161
峰	-9.33164
▁现代	-9.33194
公	-9.33204
▁萧	-9.33248
▁音乐	-9.33272
▁就要	-9.33356
▁比如	-9.33365
▁很快	-9.3338
▁后来	-9.33389
▁代	-9.33494
▁朱	-9.335
▁感受	-9.33533
▁目光	-9.33607
▁整体	-9.33627
▁变成	-9.33652
▁f	-9.33655
▁符合	-9.33721
▁竞争	-9.33733
▁当地	-9.33749
▁检测	-9.33787
▁左	-9.33788
雪	-9.33816
雨	-9.33862
▁待	-9.33927
速	-9.33959
▁行政	-9.34172
▁投	-9.34285
▁乐	-9.34364
▁优惠	-9.34422
任	-9.34837
▁2015	-9.34895
易	-9.34916
▁停	-9.34921
▁刚才	-9.3501
▁翻	-9.35013
境	-9.35071
▁巨	-9.35156
▁意思	-9.35215
▁食品	-9.35227
▁现	-9.35234
理	-9.35252
▁施工	-9.35278
伤	-9.35333
▁位于	-9.35428
▁刚刚	-9.35429
▁亿	-9.35436
▁重新	-9.35458
▁深入	-9.35545
至	-9.35553
▁办理	-9.35558
▁偏	-9.35592
▁物流	-9.3565
▁江	-9.35753
▁一步	-9.35809
户	-9.35827
▁工	-9.35838
▁慢慢	-9.35847
▁特殊	-9.3589
▁自由	-9.35943
▁玉	-9.35975
▁初	-9.35987
▁人生	-9.36109
▁遇到	-9.36241
▁队	-9.36279
▁主动	-9.36309
▁享受	-9.36312
▁更新	-9.36455
厂	-9.36562
▁边	-9.36591
▁建	-9.36602
▁不再	-9.36611
▁集	-9.36679
▁29	-9.36682
▁顾	-9.36698
待	-9.36766
▁恢复	-9.36812
则	-9.36842
▁经常	-9.36912
▁曾经	-9.36934
▁机械	-9.37152
10	-9.37189
杀	-9.37244
▁相当	-9.373
▁殑	-9.37316
▁意见	-9.37359
先	-9.37458
▁规模	-9.37566
▁淡黄	-9.37583
<	-9.37608
酒	-9.37794
▁技巧	-9.37821
▁自身	-9.37858
▁任	-9.37865
▁武	-9.37903
▁下去	-9.37951
▁楼	-9.37956
▁一名	-9.37969
▁一道	-9.37982
▁降低	-9.38021
▁她们	-9.38048
▁发表	-9.3806
▁公共	-9.38113
族	-9.38164
▁手中	-9.38179
▁玻璃	-9.38207
▁一阵	-9.38211
▁制	-9.38277
▁重庆	-9.38351
▁报	-9.38381
▁夏	-9.38483
D	-9.3876
▁绿色	-9.38764
▁视	-9.38814
▁温	-9.38953
▁德	-9.38989
▁式	-9.39031
▁课程	-9.39068
集	-9.39114
▁担心	-9.39144
▁装备	-9.3923
▁确实	-9.39393
▁位	-9.39421
▁胡	-9.39422
▁看见	-9.39424
久	-9.39472
干	-9.39521
▁感到	-9.3956
▁愿意	-9.39596
▁怪	-9.39631
▁防	-9.39666
▁儿童	-9.39669
▁鐨	-9.3967
▁谢	-9.39675
加	-9.39702
▁关	-9.39728
▁正是	-9.39743
南	-9.39777
▁故	-9.39822
正	-9.3989
▁数量	-9.3995
▁求	-9.39974
▁背	-9.40033
▁措施	-9.40318
▁限	-9.40328
东	-9.40387
▁运行	-9.40426
▁联合	-9.40499
▁阶段	-9.40525
自	-9.4053
▁喜	-9.40556
微	-9.40639
▁一片	-9.40676
▁设置	-9.40781
▁网友	-9.40791
▁父亲	-9.40937
▁认真	-9.40959
西	-9.41032
▁点头	-9.41093
▁镨	-9.41144
▁店	-9.41181
▁回到	-9.41322
▁优	-9.41374
▁表	-9.41394
张	-9.414
▁微微	-9.41433
令	-9.41492
▁g	-9.41521
▁社区	-9.4157
夫	-9.41657
▁虽	-9.41721
▁特点	-9.41729
▁查	-9.41749
▁反应	-9.41783
▁立即	-9.41806
▁必要	-9.41963
=	-9.41996
馆	-9.42038
何	-9.42085
▁化学	-9.42111
▁先进	-9.42142
▁离	-9.42154
▁明确	-9.42255
▁懂	-9.42288
▁W	-9.42427
哥	-9.42463
▁孙	-9.42503
▁亲	-9.42526
▁身份	-9.42528
兰	-9.4254
官	-9.42652
▁立刻	-9.42681
▁呀	-9.42771
▁女性	-9.42775
▁派	-9.42806
香	-9.42844
▁似	-9.42856
▁考	-9.42916
▁儿子	-9.42926
▁程序	-9.42968
▁邀请	-9.43026
▁令	-9.43099
▁O	-9.43234
▁战斗	-9.43346
▁测试	-9.43359
布	-9.4348
思	-9.43493
▁实	-9.43504
▁药	-9.43507
段	-9.43507
▁这一	-9.43512
▁统一	-9.43564
算	-9.43612
难	-9.43642
▁加上	-9.43643
▁同学	-9.43693
▁即使	-9.43785
君	-9.43876
非	-9.4395
▁举行	-9.43963
▁理解	-9.43977
▁资讯	-9.44031
远	-9.44049
▁咱们	-9.44071
▁难道	-9.44147
青	-9.44151
▁依然	-9.44294
▁收入	-9.44338
▁广泛	-9.44466
▁挺	-9.44482
▁迅速	-9.44503
▁眼前	-9.44504
▁大型	-9.44544
▁26	-9.44668
▁众人	-9.44736
▁赶	-9.44745
▁苦	-9.44752
▁回答	-9.44828
▁应当	-9.44843
▁班	-9.44849
▁app	-9.44878
▁此外	-9.44912
▁画	-9.44924
▁上面	-9.44999
▁秒	-9.45009
题	-9.45151
河	-9.45156
弃	-9.45251
▁吸引	-9.45263
▁群众	-9.45268
▁深圳	-9.4529
▁集中	-9.45356
▁剉	-9.4546
▁它们	-9.45509
▁来看	-9.45522
▁CASNO	-9.45531
▁此次	-9.45623
▁怕	-9.45626
▁排	-9.45639
▁理念	-9.4565
人员	-9.45672
▁成绩	-9.45673
▁网址	-9.4572
箱	-9.45731
群	-9.45807
▁发出	-9.4583
▁尽	-9.45899
▁暗	-9.45937
▁a	-9.45959
和	-9.45999
▁第一次	-9.46078
▁坐在	-9.46089
▁流	-9.46116
氏	-9.46221
▁青年	-9.46295
▁一件	-9.46335
波	-9.46452
▁宝	-9.46458
▁动作	-9.46653
▁采取	-9.46789
▁粉红色	-9.46864
解	-9.4696
放	-9.47
▁房间	-9.47025
▁m	-9.47112
▁修	-9.47148
▁常	-9.47155
▁展示	-9.47173
▁声	-9.47332
若	-9.47345
亮	-9.47353
▁放在	-9.47388
▁种	-9.47395
看	-9.47436
宗	-9.47445
食	-9.4747
▁破	-9.47509
▁轻轻	-9.47544
▁连续	-9.47656
▁搞	-9.47699
▁香	-9.4772
\	-9.47766
▁挂	-9.47779
▁星	-9.47819
初	-9.47958
▁活	-9.47968
▁事实	-9.47974
▁避免	-9.47978
就	-9.47985
▁跳	-9.47995
▁般	-9.48028
▁晚上	-9.48048
▁保险	-9.48065
▁技能	-9.48077
关	-9.48121
▁意识	-9.48125
▁县	-9.48153
罗	-9.48162
▁合理	-9.48182
▁等等	-9.48184
▁英国	-9.48212
▁顶	-9.48308
▁皆	-9.48339
▁一路	-9.48387
▁與	-9.48396
▁27	-9.48415
▁款	-9.485
▁品质	-9.48634
▁培养	-9.48683
▁镇	-9.48689
▁军	-9.4871
▁群	-9.48741
胜	-9.48911
▁因素	-9.48913
间体	-9.48914
▁事件	-9.48967
▁油	-9.49174
▁主任	-9.49185
▁总是	-9.4919
▁套	-9.49416
▁证明	-9.49451
▁雪	-9.49473
丽	-9.4952
▁成长	-9.49546
▁本站	-9.49601
▁失	-9.4964
▁创造	-9.4965
代	-9.49657
音	-9.49679
▁微信	-9.49808
▁F	-9.49829
▁许	-9.49908
▁稍	-9.49935
▁高纯	-9.4994
▁妖	-9.49944
▁利	-9.49968
▁计算	-9.49994
▁片	-9.50008
▁R	-9.5007
▁本来	-9.50093
▁记录	-9.50114
照	-9.5012
▁广州	-9.50124
▁配	-9.5016
▁01	-9.50247
宫	-9.5028
▁经历	-9.50284
▁一场	-9.50375
▁°	-9.5042
▁本身	-9.5048
▁千	-9.50501
▁阴	-9.50625
▁梦	-9.507
▁承担	-9.50707
选	-9.5077
▁适用	-9.50841
▁幸福	-9.50923
▁倍	-9.50955
圈	-9.51064
▁解释	-9.51066
▁广大	-9.5111
▁雷	-9.51121
木	-9.51134
▁协议	-9.51136
▁下降	-9.51204
▁那样	-9.51232
▁公布	-9.51237
▁双方	-9.51259
▁既然	-9.51373
▁是因为	-9.51375
▁理论	-9.51427
▁母亲	-9.51465
▁高度	-9.51526
▁即可	-9.51609
目	-9.51623
约	-9.5165
额	-9.51655
▁点击	-9.51683
▁立	-9.51688
▁充满	-9.51789
▁父母	-9.51795
▁查看	-9.51798
▁留下	-9.51841
▁空气	-9.51882
▁地址	-9.51886
打	-9.51921
▁竟	-9.51941
▁算	-9.52041
▁性能	-9.52051
▁专用	-9.52065
▁体	-9.52144
▁农村	-9.5219
▁地上	-9.52333
▁唯一	-9.52342
▁举办	-9.5244
启	-9.5245
▁毛	-9.52477
阵	-9.52506
变	-9.52579
江	-9.52625
▁工具	-9.52659
志	-9.52667
▁至少	-9.52683
▁内部	-9.52703
离	-9.52735
政府	-9.52737
▁马上	-9.52798
▁乱	-9.528
▁发挥	-9.5283
▁严格	-9.52839
电	-9.52848
▁汉	-9.52857
命	-9.52906
▁女子	-9.52952
▁距离	-9.52968
▁好好	-9.53057
服务	-9.53067
▁去年	-9.53119
▁类型	-9.53147
▁数字	-9.53247
班	-9.53254
▁度	-9.53346
▁展	-9.53366
▁哪些	-9.53587
都	-9.53606
▁怎样	-9.53634
▁宝宝	-9.53794
▁复	-9.53858
▁组成	-9.53887
▁表面	-9.53949
▁今日	-9.53997
▁鬼	-9.54081
▁顿时	-9.54099
▁满	-9.54185
▁规格	-9.5419
受	-9.54195
▁弄	-9.54228
证	-9.54264
▁招聘	-9.54271
▁G	-9.54314
▁睡	-9.54345
▁配合	-9.54397
▁小姐	-9.54401
▁亮	-9.54482
▁正确	-9.54498
▁女儿	-9.54755
▁奇	-9.54861
'	-9.54893
衣	-9.54913
▁快乐	-9.54951
▁实践	-9.54973
词	-9.55042
▁山东	-9.55096
季	-9.55123
▁登录	-9.55135
才	-9.55151
▁家里	-9.55316
灯	-9.55323
老	-9.55392
▁资产	-9.55405
▁追	-9.5544
链	-9.55501
▁牛	-9.55548
炎	-9.5555
▁冰	-9.55559
▁力	-9.55626
▁有所	-9.55672
▁掉	-9.55695
下来	-9.55781
▁年轻	-9.55896
纳	-9.55935
码	-9.55991
▁那种	-9.56082
▁急	-9.56097
岛	-9.56103
派	-9.56201
▁确认	-9.56247
▁脚	-9.56283
▁从而	-9.56285
▁兄弟	-9.56287
▁浏览	-9.56292
时候	-9.56322
刀	-9.56352
▁便是	-9.56357
菜	-9.56366
可	-9.56503
▁嗯	-9.5659
▁心理	-9.56591
▁掌握	-9.56591
▁一张	-9.56645
根	-9.56795
▁及其	-9.56852
▁评价	-9.56891
▁推广	-9.56908
▁令人	-9.56916
▁胸	-9.56977
▁机制	-9.56994
▁优化	-9.57014
▁装修	-9.57061
▁一只	-9.57125
▁也许	-9.57215
雅	-9.57229
▁景	-9.57281
▁补	-9.57427
▁钆	-9.57434
▁幸运	-9.57452
▁做出	-9.57484
▁下午	-9.57496
▁步	-9.5753
▁家长	-9.57551
▁修改	-9.57606
▁独立	-9.57675
▁男子	-9.57711
▁疫情	-9.57744
读	-9.57796
▁基地	-9.57834
▁c	-9.57918
▁见到	-9.57929
▁农业	-9.5796
▁涉及	-9.58036
面积	-9.58081
套	-9.58176
▁开放	-9.58219
▁♀	-9.58243
▁抽	-9.58247
侧	-9.58285
脚	-9.58326
▁突破	-9.58327
▁部	-9.58383
▁项	-9.58395
▁原则	-9.58461
宇	-9.58764
▁动	-9.58805
▁工艺	-9.58835
▁股	-9.58837
▁车辆	-9.58862
差	-9.59065
▁H	-9.59089
家伙	-9.59267
▁或许	-9.59347
▁谈	-9.59433
升	-9.59439
▁仿佛	-9.59559
当	-9.59582
▁意义	-9.5959
▁温度	-9.59626
▁医生	-9.59711
▁评论	-9.59748
▁这时	-9.59766
指	-9.59832
母	-9.59837
做	-9.59893
▁柳	-9.59916
▁危险	-9.59918
▁照片	-9.59924
▁讨论	-9.59933
▁鱼	-9.59962
▁插	-9.60099
▁E	-9.60252
6	-9.60271
▁其它	-9.60276
▁办	-9.60326
▁增强	-9.60378
▁布	-9.60385
▁生物	-9.60426
▁股份	-9.60465
▁院	-9.605
▁能量	-9.60532
▁浠	-9.60568
▁限制	-9.60729
部门	-9.60769
▁否则	-9.60814
▁晚	-9.60819
▁年度	-9.61009
其	-9.61035
▁委员会	-9.61057
▁色	-9.61094
▁於	-9.61099
▁英	-9.61113
▁2014	-9.6115
义	-9.61192
镱	-9.61227
帝	-9.61315
▁投入	-9.61359
▁报名	-9.61427
▁智慧	-9.61438
▁落实	-9.61446
▁习近	-9.61454
▁表情	-9.61487
▁一旦	-9.61499
▁动力	-9.6151
术	-9.61542
▁原本	-9.61578
▁伤	-9.61594
▁皇	-9.61727
▁之外	-9.61745
▁装	-9.61759
▁试	-9.61761
党	-9.61904
票	-9.62024
▁大陆	-9.62061
▁加快	-9.62093
▁對	-9.62192
▁天下	-9.62251
▁菜	-9.62292
▁直播	-9.62293
端	-9.62294
▁订单	-9.6234
▁系	-9.62409
▁记	-9.62482
景	-9.62491
▁科	-9.62517
▁难以	-9.62548
限	-9.62611
宁	-9.62619
▁加盟	-9.62633
▁瞬间	-9.62701
愿	-9.62729
▁韩国	-9.6288
5	-9.62901
▁制定	-9.62903
@	-9.62912
查	-9.63039
S	-9.63048
皮	-9.63059
▁疾病	-9.63101
▁200	-9.63208
▁意	-9.63312
倒	-9.6334
计	-9.63342
▁假	-9.63441
▁感	-9.63446
▁凡	-9.63468
▁&	-9.6349
▁训练	-9.63531
▁干部	-9.63552
▁轻松	-9.63594
象	-9.63602
素	-9.63731
▁本人	-9.6376
▁维修	-9.63814
▁运用	-9.63867
▁嘴	-9.63878
▁查询	-9.63915
▁多种	-9.63965
▁铕	-9.63966
▁场	-9.63986
▁放心	-9.64023
▁人物	-9.64023
奇	-9.64052
▁沙	-9.64064
▁美丽	-9.6408
▁没想到	-9.64126
▁紫	-9.64195
▁忙	-9.642
▁权利	-9.64214
念	-9.64231
▁无论	-9.6433
▁从事	-9.6434
▁铽	-9.64368
扬	-9.64484
铁	-9.64487
▁零	-9.64524
▁满意	-9.64594
▁洗	-9.64598
▁催化	-9.64634
▁一丝	-9.64781
▁一把	-9.64898
▁出口	-9.64939
▁90	-9.64951
▁进口	-9.65002
▁端	-9.65051
将	-9.65094
▁回去	-9.65102
野	-9.65103
▁营销	-9.65124
▁挑战	-9.65152
▁照	-9.65204
▁皮肤	-9.65224
▁逐渐	-9.65323
▁%	-9.65489
▁不了	-9.65495
▁监督	-9.6554
▁SO	-9.65555
▁细	-9.6559
中心	-9.65598
府	-9.65687
▁500	-9.65694
▁郑	-9.65835
压	-9.6591
镇	-9.66003
夜	-9.66044
▁品	-9.66069
▁分快	-9.66078
▁值得	-9.66104
设	-9.66134
▁平均	-9.66144
曰	-9.66173
注	-9.66255
▁克	-9.663
▁笔	-9.66366
▁硬	-9.66366
▁小心	-9.66416
▁英语	-9.66543
▁著	-9.66595
▁周围	-9.66617
▁00	-9.66649
▁随后	-9.66653
击	-9.6666
▁s	-9.66695
血	-9.66737
真	-9.66765
▁土地	-9.66776
办	-9.66793
▁后面	-9.66823
▁改善	-9.66915
▁外面	-9.66943
▁消失	-9.66983
▁收到	-9.6714
▁尽管	-9.67153
▁人家	-9.67162
▁语言	-9.67179
▁始终	-9.67217
▁段	-9.67249
▁科研	-9.67265
▁现象	-9.67307
▁卫生	-9.67333
▁机关	-9.67421
▁颗粒	-9.6744
▁脸色	-9.67484
▁所谓	-9.67499
秀	-9.67557
▁而已	-9.67584
求	-9.67695
▁苹果	-9.67734
热	-9.67738
▁实验	-9.67779
▁同比	-9.67791
▁黄金	-9.67887
▁购物	-9.67957
▁成员	-9.68061
产	-9.68144
▁礼	-9.68242
▁合同	-9.68253
▁主席	-9.68321
▁食物	-9.68364
▁道路	-9.68445
▁杜	-9.68449
▁时尚	-9.68464
库	-9.68473
省	-9.68513
▁一款	-9.68583
▁永远	-9.68605
▁亚洲	-9.68672
▁记得	-9.68673
亚	-9.68703
▁佛	-9.6872
▁刀	-9.68723
▁V	-9.6877
▁办公室	-9.68775
▁各类	-9.68779
父	-9.68806
▁文明	-9.68888
企业	-9.68945
7	-9.68966
雷	-9.69004
▁事业	-9.69067
▁相比	-9.69203
▁2012	-9.69241
▁注	-9.69296
▁资格	-9.69356
▁颜色	-9.69461
▁风格	-9.69491
从	-9.69511
▁件	-9.69524
▁提醒	-9.69524
▁处于	-9.69537
▁压	-9.69642
▁太阳	-9.69685
▁身后	-9.69744
▁就业	-9.69753
鱼	-9.69776
▁郭	-9.6979
▁女孩	-9.69868
传	-9.69896
▁完整	-9.69898
茶	-9.69956
▁球队	-9.69968
甲	-9.70007
▁当中	-9.70035
▁当前	-9.70073
早	-9.70094
午	-9.70108
岁	-9.70116
▁现实	-9.70142
▁接触	-9.70169
联	-9.70231
尼	-9.7026
▁碳酸	-9.70265
▁贴	-9.7029
▁镥	-9.7031
▁沟通	-9.70336
▁楚	-9.70349
▁每年	-9.70361
▁熟悉	-9.70423
▁启动	-9.7043
▁例如	-9.70505
▁抗	-9.7059
▁负责人	-9.70623
▁准确	-9.70652
▁K	-9.70662
▁教授	-9.70675
▁顺	-9.70702
▁眼神	-9.70773
▁联	-9.7096
修	-9.70971
质量	-9.70994
▁监管	-9.71021
▁密	-9.71032
▁利益	-9.71059
▁近日	-9.71125
断	-9.71126
▁德盛	-9.71141
▁个人资料	-9.71249
▁定制	-9.71281
▁跨	-9.714
▁出售	-9.71412
别	-9.71461
丝	-9.71542
首	-9.71556
▁L	-9.716
▁习惯	-9.71631
▁局	-9.71653
▁高级	-9.71681
梦	-9.71704
▁归	-9.71724
▁结晶	-9.7174
▁本次	-9.71744
▁随	-9.71752
▁死亡	-9.71783
▁2011	-9.71824
▁谢谢	-9.71844
粉	-9.71854
▁心情	-9.71893
铥	-9.71893
▁松	-9.71949
▁资本	-9.71951
▁随时	-9.71986
▁运	-9.72032
▁些	-9.72032
▁给予	-9.72068
▁闪	-9.72083
▁折	-9.72147
▁完美	-9.72165
▁80	-9.72207
致	-9.72223
托	-9.72268
▁连接	-9.7227
春	-9.72297
▁31	-9.7232
▁贸易	-9.72348
▁念	-9.72359
乱	-9.72362
良	-9.72395
彩	-9.72445
▁江苏	-9.72508
▁授权	-9.72568
▁剩	-9.72628
索	-9.72694
▁露出	-9.72724
观	-9.72828
液	-9.7286
▁底	-9.72881
等	-9.72905
▁最佳	-9.72945
▁春	-9.72951
五	-9.72981
果	-9.7304
▁鸡	-9.73053
▁绝	-9.7306
▁摆	-9.73091
▁宫	-9.7312
福	-9.73199
▁召开	-9.73211
保	-9.73227
▁抢	-9.73305
▁通常	-9.73354
▁全新	-9.73423
▁消	-9.73606
▁欧洲	-9.73617
▁逼	-9.73734
怒	-9.73749
▁X	-9.73766
晓	-9.73799
效	-9.73908
▁第四	-9.73932
▁Q	-9.73935
▁整	-9.73944
▁专门	-9.73963
产品	-9.7397
▁鈥	-9.73986
▁久	-9.73995
▁救	-9.74132
▁粉	-9.74134
▁经典	-9.74164
▁民族	-9.74179
朋友	-9.74232
▁耐	-9.74262
▁阵	-9.74292
▁之下	-9.7432
▁四个	-9.7432
评	-9.7435
▁开口	-9.74421
▁具备	-9.74549
对	-9.74624
▁亚	-9.74635
不到	-9.74647
足	-9.74697
记	-9.74706
▁皮	-9.74734
奖	-9.74765
朝	-9.74778
▁码	-9.74829
▁丢	-9.7487
歌	-9.74892
▁角色	-9.74954
▁比例	-9.74994
运	-9.75037
▁强化	-9.75058
▁融合	-9.7517
▁当年	-9.75171
域	-9.75187
▁登记	-9.75245
北	-9.75285
▁梁	-9.75364
▁手段	-9.75369
息	-9.75412
▁协会	-9.75431
必	-9.75455
止	-9.75458
▁世	-9.75474
骨	-9.75546
▁结	-9.75607
▁英雄	-9.75621
▁姑娘	-9.75785
▁大概	-9.75843
▁错	-9.75935
▁大人	-9.76015
▁违反	-9.76027
▁中间	-9.76039
▁自行	-9.76081
▁自我	-9.76095
活	-9.76095
▁基	-9.76129
设计	-9.76153
似	-9.76206
▁所在	-9.76224
▁回家	-9.76313
▁人数	-9.7642
▁文字	-9.76421
▁困难	-9.76544
▁―	-9.76691
叶	-9.76768
▁或是	-9.76805
▁赛车	-9.76808
▁哭	-9.76859
响	-9.76909
树	-9.76925
8	-9.76981
▁休息	-9.77023
川	-9.77101
调	-9.77143
▁n	-9.77146
▁哈	-9.77151
▁参考	-9.77197
▁知	-9.77197
▁值	-9.77198
B	-9.77206
▁爆	-9.77262
使	-9.77353
转	-9.77359
▁德国	-9.77364
▁日常	-9.7737
礼	-9.77378
▁毕业	-9.77432
演	-9.77443
▁基于	-9.77452
▁老人	-9.7747
控	-9.7747
▁伤害	-9.77481
▁博	-9.77483
▁地点	-9.77493
▁敢	-9.77569
治	-9.77611
▁劳动	-9.77617
▁营养	-9.77628
▁旁边	-9.77639
▁黑色	-9.77649
▁草	-9.77669
▁彻底	-9.77681
▁观看	-9.77735
▁贷款	-9.77791
▁统计	-9.77815
▁股票	-9.77836
▁今	-9.77847
▁猛	-9.77885
▁电视	-9.77943
▁态度	-9.77979
蛋	-9.77987
9	-9.78048
技术	-9.78071
▁散	-9.78075
▁屽	-9.78092
▁转载	-9.7816
▁宣布	-9.78194
▁升	-9.782
▁人民币	-9.78277
▁2010	-9.78293
▁停止	-9.78297
▁直到	-9.78324
▁复杂	-9.78384
▁船	-9.78434
斤	-9.78444
▁善	-9.78446
▁显然	-9.78556
▁批发	-9.78573
▁05	-9.78637
▁免	-9.78704
▁封	-9.78784
币	-9.78823
▁姐姐	-9.78829
课	-9.78837
田	-9.78841
▁接着	-9.78891
船	-9.78952
▁众多	-9.78994
基	-9.79065
▁一份	-9.79127
佳	-9.79145
0%	-9.79181
▁追求	-9.79194
▁08	-9.79206
▁陪	-9.79207
▁一股	-9.79231
▁状况	-9.79269
▁红色	-9.79281
▁认证	-9.79389
▁使得	-9.79473
▁纸	-9.79479
社	-9.79482
肉	-9.79589
▁土	-9.7963
载	-9.79669
▁简称	-9.79685
寒	-9.7969
▁东方	-9.79704
破	-9.79709
▁上述	-9.79727
▁治理	-9.79896
恩	-9.79937
收	-9.79938
▁无机酸	-9.79967
▁响	-9.79968
▁2013	-9.7997
▁失去	-9.80069
▁引	-9.8013
▁爱情	-9.80178
▁强调	-9.80252
晚	-9.80302
▁无数	-9.80358
▁不足	-9.80371
▁网页	-9.80453
▁紧	-9.80564
养	-9.80604
▁相应	-9.80609
▁the	-9.80688
乎	-9.80733
▁办公	-9.80775
▁官	-9.80813
游戏	-9.80832
地区	-9.80873
▁公里	-9.80898
森	-9.80979
▁往往	-9.80988
症	-9.81069
▁采购	-9.81126
▁流程	-9.81128
▁他人	-9.81167
▁想法	-9.81186
▁餐	-9.81216
▁双手	-9.81227
▁考生	-9.81237
▁包含	-9.81267
▁果然	-9.81426
▁观察	-9.81464
▁登	-9.8149
▁寒	-9.81491
塔	-9.81551
▁异	-9.8164
▁天天	-9.81664
▁少年	-9.81667
▁几天	-9.81685
餐	-9.81707
▁算是	-9.81729
▁必	-9.8173
▁p	-9.81812
池	-9.81841
▁提前	-9.81855
姐	-9.82022
▁各项	-9.82094
▁伊	-9.82112
▁固定	-9.82148
▁预计	-9.82206
▁率	-9.82207
容	-9.8227
▁版本	-9.82404
竟	-9.82462
排	-9.82523
▁至于	-9.82624
▁磁性材	-9.8268
▁招	-9.82697
▁忘	-9.82709
▁现货	-9.82723
英	-9.82742
▁期待	-9.82784
▁团	-9.828
舞	-9.82822
▁养	-9.82961
▁大部分	-9.82965
▁供	-9.82976
▁游	-9.82995
▁呈现	-9.83031
威	-9.83045
著	-9.83113
▁混	-9.8312
▁河南	-9.83202
▁盯	-9.83202
▁雨	-9.83212
▁感谢	-9.83232
▁绿	-9.83246
批	-9.83253
▁业	-9.83334
▁紧张	-9.83337
常	-9.83356
▁印	-9.83362
▁禁止	-9.8349
▁使用者	-9.8358
▁姜	-9.83584
未	-9.83593
▁环	-9.83642
▁删除	-9.83677
您	-9.83697
遇	-9.83874
设备	-9.83969
▁证券	-9.8403
▁吸	-9.84141
▁覆盖	-9.84362
泽	-9.84418
▁软	-9.84487
▁打算	-9.84508
▁提示	-9.84512
▁广东	-9.84536
▁澳门	-9.84588
▁一块	-9.84735
▁狂	-9.84746
▁体现	-9.84813
▁发行	-9.84881
▁09	-9.84968
K	-9.85034
▁效率	-9.85035
生活	-9.85048
▁脱	-9.85051
▁前面	-9.85164
▁意外	-9.85169
▁纷纷	-9.85183
▁寻找	-9.85188
▁职	-9.85207
▁成果	-9.85238
▁福	-9.85354
W	-9.85374
▁显得	-9.85405
▁天气	-9.85413
▁I	-9.85497
▁规则	-9.85504
▁金属	-9.85519
▁感情	-9.85672
▁肩	-9.85707
原	-9.85804
▁骗	-9.85863
▁忍不住	-9.85867
▁观众	-9.85889
不住	-9.85891
▁街	-9.859
▁人士	-9.85902
▁围	-9.85908
▁损失	-9.85918
辰	-9.85932
▁运输	-9.85997
▁03	-9.85997
▁投资者	-9.86021
▁高手	-9.8608
▁哥哥	-9.86113
▁足球	-9.86173
▁爸爸	-9.86205
关系	-9.86207
▁组合	-9.86208
▁巴	-9.86266
▁背景	-9.86267
▁喊	-9.86267
d	-9.8628
▁70	-9.86307
▁反而	-9.86311
羽	-9.86336
▁垃圾	-9.86546
▁意味	-9.86582
▁预	-9.86598
▁刺激	-9.86615
▁没什么	-9.86689
▁排名	-9.86693
▁美女	-9.86859
▁错误	-9.86864
▁作出	-9.86875
▁依旧	-9.86906
▁背后	-9.86952
架	-9.86964
▁获	-9.8704
▁墙	-9.87064
▁魔法	-9.8707
博	-9.87119
▁情绪	-9.87127
▁扩大	-9.87129
▁厉害	-9.87156
▁拒绝	-9.87193
▁食	-9.87272
▁这件	-9.87283
瑞	-9.87289
▁想起	-9.87301
▁自主	-9.87325
土	-9.87351
▁节目	-9.87382
▁旧	-9.8741
▁支撑	-9.87456
▁突出	-9.87499
▁此刻	-9.87528
▁分类	-9.87529
▁社会主义	-9.87546
剧	-9.8758
草	-9.87603
▁各地	-9.87616
▁传播	-9.87649
▁动物	-9.87726
交	-9.87745
▁而言	-9.87777
▁老板	-9.8778
职	-9.8783
痛	-9.87883
▁预测	-9.88026
▁浮	-9.88064
▁声明	-9.8811
▁防止	-9.88111
▁腰	-9.8822
▁保留	-9.8828
▁300	-9.88293
结	-9.88318
▁居民	-9.88352
▁盛	-9.88407
送	-9.88408
膜	-9.88478
脸	-9.885
P	-9.88509
居	-9.88536
▁海外	-9.88584
▁哼	-9.88597
▁功	-9.88611
▁试验	-9.88663
▁家具	-9.88669
▁展开	-9.88702
▁即将	-9.88794
除	-9.88817
▁高效	-9.8884
世界	-9.88843
▁面临	-9.88993
委	-9.89067
▁地位	-9.891
▁高兴	-9.89106
▁设施	-9.89122
▁昨天	-9.89206
散	-9.89256
▁从来	-9.89263
画	-9.89266
▁创	-9.89268
▁愣	-9.89296
▁究	-9.89348
秋	-9.89384
▁钪	-9.89419
▁对象	-9.89436
杩	-9.89535
▁年龄	-9.89554
▁凌	-9.89563
▁化工	-9.89625
巴	-9.89648
遍	-9.89761
▁书记	-9.89793
智	-9.89825
▁降	-9.8985
R	-9.89871
桥	-9.89945
▁07	-9.89989
▁顺利	-9.9003
▁污染	-9.90041
▁价	-9.901
▁鍙	-9.90171
灭	-9.9018
▁百度	-9.90196
▁角度	-9.90242
醒	-9.90272
▁腾讯	-9.90292
▁一脸	-9.903
▁天津	-9.90317
▁房地产	-9.90326
魂	-9.90348
▁境	-9.9038
▁來	-9.90386
接	-9.90416
▁表达	-9.90425
▁陶瓷	-9.9044
▁不够	-9.9048
▁切	-9.90485
▁证	-9.90524
闻	-9.90528
▁共享	-9.90546
▁嘛	-9.9056
▁J	-9.90571
▁进来	-9.90575
▁疯狂	-9.90613
功	-9.90626
▁狗	-9.90639
▁奇怪	-9.90641
兽	-9.90689
▁联盟	-9.90693
机构	-9.907
▁版权	-9.90728
卷	-9.90778
▁弟子	-9.90808
▁装饰	-9.90851
爷	-9.90878
▁原料	-9.90893
▁队伍	-9.909
▁搜索	-9.90906
▁高校	-9.91007
▁输	-9.9105
▁能源	-9.91057
▁定位	-9.9107
▁右	-9.91071
游	-9.91171
娘	-9.91291
▁症	-9.91296
▁依法	-9.91347
▁例	-9.91365
▁眼中	-9.91373
▁地面	-9.9157
▁色彩	-9.9158
▁开心	-9.91628
▁诗	-9.91648
▁断	-9.91703
▁对手	-9.91733
▁阳光	-9.91751
▁医药	-9.91753
▁麻烦	-9.91762
▁美元	-9.91809
▁鼓励	-9.91811
▁工作人员	-9.91844
▁记忆	-9.91855
▁形象	-9.91903
▁取消	-9.91935
▁费	-9.92019
A	-9.92047
▁分为	-9.92088
四	-9.92094
▁传来	-9.92185
▁美好	-9.92187
▁实行	-9.92188
▁著名	-9.92198
▁须	-9.9229
司	-9.923
错	-9.92302
▁仔细	-9.92317
▁吓	-9.92328
M	-9.92331
▁宁	-9.9236
▁摸	-9.92363
▁e	-9.92399
辈	-9.92435
V	-9.92515
▁欲	-9.92563
▁04	-9.92564
▁吹	-9.92663
钢	-9.92675
▁汤	-9.9269
▁广西	-9.92742
▁知名	-9.92778
▁收集	-9.92848
▁钬	-9.9287
▁等待	-9.92889
能源	-9.92902
▁藏	-9.92974
▁清洗	-9.92981
▁不如	-9.9305
▁读	-9.93066
▁引导	-9.93131
▁刺	-9.93173
▁公主	-9.93186
▁额	-9.93237
▁怎么办	-9.93251
▁粗	-9.93415
▁零售	-9.93424
庄	-9.9343
▁融资	-9.93447
▁抵	-9.93619
▁评估	-9.93669
▁有没有	-9.93697
▁月份	-9.93723
▁游客	-9.93734
▁母	-9.93739
弱	-9.93742
`	-9.93792
▁违法	-9.93825
▁大会	-9.93872
▁趋势	-9.939
▁恐怕	-9.9407
▁配置	-9.94072
▁公告	-9.94121
万	-9.94238
▁驾驶	-9.94273
不起	-9.943
▁盘	-9.94319
材	-9.94351
▁各个	-9.94387
▁玄	-9.94481
港	-9.945
▁足够	-9.94649
▁几年	-9.94652
▁高速	-9.9466
退	-9.94714
武	-9.94746
太	-9.9475
▁赢	-9.94772
壁	-9.9485
▁南京	-9.94867
▁丁	-9.94879
▁客服	-9.94899
▁民	-9.9494
善	-9.94944
失	-9.94946
杰	-9.94975
怪	-9.94978
▁广	-9.95036
▁手术	-9.95098
越	-9.9519
▁可靠	-9.95263
▁创作	-9.95333
▁支	-9.95358
▁成都	-9.95362
▁思	-9.95375
虎	-9.95409
▁搬	-9.95429
▁作业	-9.95594
▁少女	-9.95607
袋	-9.95623
▁加大	-9.95693
▁渠道	-9.95703
▁主管	-9.95732
▁适应	-9.9577
▁主人	-9.95786
▁舒	-9.95809
▁罢	-9.95829
纸	-9.95834
▁微笑	-9.95893
▁35	-9.9602
▁流量	-9.96047
▁独特	-9.96061
▁收益	-9.96068
▁身子	-9.96082
▁河	-9.96114
妙	-9.96115
鬼	-9.96144
些	-9.96173
▁俄罗斯	-9.96296
▁摇头	-9.96301
▁探索	-9.96321
▁首次	-9.96323
g	-9.96353
▁l	-9.9642
▁反映	-9.96429
▁平时	-9.96431
▁三年	-9.96461
▁圆	-9.96464
▁相互	-9.96514
史	-9.96546
▁产	-9.96639
承	-9.96669
▁体内	-9.9668
▁--	-9.96709
▁x	-9.96745
▁會	-9.96754
▁甚	-9.96833
▁河北	-9.96857
▁艾	-9.96862
▁淡淡	-9.96897
笔	-9.969
▁赶紧	-9.97005
市场	-9.97083
▁卷	-9.97102
▁房屋	-9.97132
▁概念	-9.97169
▁听说	-9.97236
▁躺	-9.97237
▁关心	-9.97257
▁权	-9.97265
▁轰	-9.97265
▁估计	-9.9727
▁兼	-9.97302
▁世纪	-9.97341
时间	-9.97361
▁各位	-9.97399
▁指标	-9.97491
▁超级	-9.97531
仙	-9.97535
▁澶	-9.97549
▁滑	-9.97566
因	-9.97587
▁出版	-9.97613
异	-9.97628
饭	-9.97749
▁的确	-9.97752
▁贵	-9.97764
▁湖北	-9.97825
屋	-9.97879
▁時	-9.97919
▁兴	-9.98
▁鏄	-9.98006
▁思考	-9.98013
▁详情	-9.98039
黑	-9.98103
▁精准	-9.98215
▁致	-9.98237
墙	-9.98269
▁戴	-9.98277
▁缓缓	-9.98282
▁幼儿	-9.98331
▁乘	-9.98333
▁总结	-9.98376
▁无比	-9.98394
▁至今	-9.98454
▁儿	-9.9853
精	-9.98549
▁金额	-9.98572
由	-9.98592
▁旗	-9.98694
们	-9.98807
牙	-9.98815
▁一致	-9.98843
▁之上	-9.98863
▁只见	-9.98868
▁拖	-9.98874
▁..	-9.98951
责任	-9.98969
▁一笑	-9.98973
^	-9.99023
▁岗位	-9.99045
▁清洁	-9.99153
不过	-9.9917
低	-9.99186
▁改造	-9.99198
▁高端	-9.99247
▁明天	-9.99254
▁装置	-9.99269
▁厚	-9.99286
佛	-9.99419
▁树	-9.99515
▁依据	-9.99598
▁理想	-9.99613
▁手里	-9.99679
倍	-9.99743
▁财务	-9.99766
▁渐渐	-9.99787
枪	-9.99788
▁拍摄	-9.99793
▁修炼	-9.99795
▁成熟	-9.99803
▁全身	-9.9982
宜	-9.99823
▁h	-9.99875
▁言	-9.99918
▁笑容	-9.99934
湖	-9.99976
▁38	-10.0004
▁横	-10.0005
▁公众	-10.0005
▁法国	-10.001
仪	-10.0012
▁偷	-10.0014
▁等级	-10.0022
耀	-10.0024
▁输入	-10.0028
▁融	-10.0033
访	-10.0037
仁	-10.0038
▁学会	-10.0051
▁协调	-10.0054
▁类似	-10.0054
▁奖	-10.0057
▁贡献	-10.0057
▁领	-10.0058
▁人群	-10.0059
▁02	-10.0069
▁合法	-10.0086
招	-10.0089
▁搭配	-10.0089
▁留言	-10.0093
丹	-10.0102
▁奥	-10.0102
管理	-10.0112
▁简直	-10.0117
▁党员	-10.0119
述	-10.012
▁判断	-10.0121
▁气息	-10.0129
识	-10.0134
▁家族	-10.0138
惠	-10.0141
▁一体	-10.0141
▁坏	-10.0147
小编	-10.0149
▁战士	-10.0158
▁梅	-10.0158
▁人口	-10.0158
▁刷	-10.0158
▁互动	-10.0162
▁众	-10.0168
▁承诺	-10.017
▁小孩	-10.0173
▁不得不	-10.0176
▁扫	-10.0176
▁质	-10.0179
▁强烈	-10.0181
m	-10.0192
深	-10.0192
▁摄影	-10.02
▁後	-10.0204
▁嘉	-10.0207
▁总统	-10.0208
▁十二	-10.0208
录	-10.021
▁标	-10.0215
兴	-10.0218
▁设	-10.0221
▁农民	-10.0223
▁守	-10.0224
伟	-10.0229
▁货	-10.0233
▁武汉	-10.0234
▁兴趣	-10.0239
▁理由	-10.024
▁凭	-10.0243
齐	-10.0249
▁蔡	-10.025
钟	-10.0252
▁杭州	-10.0254
▁波	-10.0255
▁呼吸	-10.0259
▁植物	-10.0262
页	-10.0262
某	-10.0263
▁年轻人	-10.0263
▁极速	-10.0263
▁微博	-10.0264
▁航空	-10.0265
▁天地	-10.0265
▁一口	-10.0266
▁钟	-10.0267
静	-10.0271
▁常见	-10.0272
▁部署	-10.0273
资	-10.0274
床	-10.0277
▁致力	-10.0279
▁无人	-10.0284
卫	-10.0287
▁学术	-10.0287
谷	-10.0288
▁說	-10.029
▁味道	-10.0292
环	-10.0295
亲	-10.0301
▁潮	-10.0302
▁浙江	-10.031
▁创建	-10.0312
伦	-10.0316
▁拜	-10.0316
街	-10.0319
▁第一个	-10.0319
▁校	-10.0322
▁转身	-10.0325
▁添加剂	-10.0325
▁观点	-10.0329
▁夫人	-10.0331
▁同一	-10.0332
▁精品	-10.0342
▁信号	-10.0344
▁盖	-10.0352
▁一段	-10.0353
▁负	-10.036
▁结婚	-10.0364
▁尽量	-10.0368
▁55	-10.0371
▁06	-10.0374
谈	-10.0379
▁并非	-10.0382
▁贯彻	-10.0386
脉	-10.0388
▁平衡	-10.0388
▁39	-10.0396
▁安徽	-10.0397
毒	-10.0397
▁答	-10.0398
▁相同	-10.0399
▁精彩	-10.0406
▁补充	-10.0409
▁较大	-10.041
▁漂亮	-10.0414
▁烟	-10.0426
松	-10.0429
配	-10.0431
分钟	-10.0432
▁敌人	-10.0436
▁永	-10.0436
▁界	-10.0445
▁两年	-10.0445
▁季	-10.0445
▁烧	-10.0446
醇	-10.0447
▁宽	-10.0448
▁吸收	-10.0458
▁逃	-10.0459
▁床	-10.0461
▁钢	-10.0461
斗	-10.0465
▁地图	-10.0465
▁45	-10.0467
先生	-10.0468
▁恐怖	-10.0468
▁接近	-10.047
▁示范	-10.0479
▁影片	-10.048
▁大师	-10.0481
▁多次	-10.0484
▁不但	-10.0485
存	-10.0486
▁审核	-10.0487
▁机场	-10.049
▁人体	-10.0491
▁程	-10.0493
▁批准	-10.0495
份	-10.0495
▁允许	-10.0496
▁休闲	-10.0499
▁36	-10.0502
盛	-10.0508
▁快递	-10.0518
▁年代	-10.0524
尽	-10.0526
▁一篇	-10.053
迷	-10.0532
购	-10.0532
康	-10.0533
▁家人	-10.0537
▁国外	-10.0544
▁博士	-10.0548
▁不停	-10.0551
杯	-10.0555
镜	-10.0558
▁顾客	-10.0558
▁孟	-10.0558
▁破坏	-10.0569
▁赌	-10.0572
▁二人	-10.0573
▁失败	-10.0575
▁页面	-10.0575
▁成就	-10.0583
▁曹	-10.0585
▁哪个	-10.0587
▁异常	-10.0588
▁可惜	-10.0588
周	-10.0598
▁争霸	-10.0598
▁Nd	-10.0601
▁商家	-10.061
▁党委	-10.0613
▁两种	-10.0615
怀	-10.0626
▁律师	-10.0632
▁毒	-10.0635
▁主体	-10.0641
让	-10.0642
▁治	-10.0646
▁无奈	-10.0647
▁虎	-10.0649
▁座	-10.0651
凡	-10.0662
▁整理	-10.0662
▁展现	-10.0665
▁痛	-10.0666
合适	-10.0669
▁将会	-10.067
▁一部分	-10.067
▁答应	-10.0674
▁到达	-10.0678
▁器	-10.0682
▁严	-10.0683
▁回复	-10.0685
▁税	-10.0687
▁室内	-10.0691
▁电动	-10.0696
▁成人	-10.0698
▁田	-10.0699
▁斯	-10.0704
▁印度	-10.0704
▁校园	-10.0705
标准	-10.0708
▁指数	-10.071
洞	-10.0716
▁猫	-10.0716
超	-10.0717
▁呵呵	-10.0719
苗	-10.072
▁斗	-10.072
余	-10.0724
▁征	-10.0727
论	-10.073
▁湖	-10.0734
▁涔	-10.0735
▁策略	-10.0742
距	-10.0743
▁痛苦	-10.0745
▁专项	-10.0746
▁洛	-10.0748
▁挣	-10.0749
▁威胁	-10.0753
▁近期	-10.0763
工程	-10.0765
汉	-10.0767
列	-10.0767
▁福建	-10.0767
▁武器	-10.0774
▁访问	-10.0779
▁新型	-10.0782
▁上升	-10.0784
▁小区	-10.0784
诺	-10.0788
▁清晰	-10.0791
▁疑	-10.0794
▁早上	-10.0796
▁君	-10.0797
▁即便	-10.0798
▁流行	-10.0799
▁哈哈	-10.0801
▁妻子	-10.0803
▁d	-10.0808
▁构成	-10.0809
教育	-10.081
▁担任	-10.0817
▁同志	-10.0819
▁奶	-10.082
射	-10.0827
▁编辑	-10.0831
▁我們	-10.0834
▁链	-10.0837
▁v	-10.084
政	-10.0846
▁计算机	-10.0858
▁阳	-10.0858
▁场景	-10.0865
▁墨	-10.0865
▁这才	-10.0874
魔	-10.0875
帅	-10.0875
▁探	-10.0876
▁剧	-10.0878
▁干净	-10.0889
▁药物	-10.089
▁抓住	-10.0892
▁赤	-10.0892
▁不见	-10.0892
▁赚	-10.0895
▁U	-10.0896
▁日前	-10.0899
▁小学	-10.0904
▁床上	-10.091
會	-10.0912
顶	-10.0915
▁临	-10.0918
▁走进	-10.0921
▁司法	-10.0926
极	-10.0927
▁一系列	-10.0931
惑	-10.0931
荣	-10.0932
▁可爱	-10.0934
敏	-10.0938
▁攻	-10.0939
否	-10.0941
印	-10.0942
▁大众	-10.095
▁施	-10.0956
九	-10.096
▁欧	-10.0965
▁兴奋	-10.0967
力度	-10.0971
▁布局	-10.0972
▁独	-10.0974
税	-10.0975
▁收费	-10.0975
▁存	-10.098
许	-10.0984
▁出发	-10.1001
▁当初	-10.1001
信息	-10.1002
哊	-10.1002
▁重视	-10.1003
▁医学	-10.1005
▁案例	-10.1008
▁勾	-10.101
▁获取	-10.1014
▁尚	-10.1017
▁雅	-10.1023
▁飞机	-10.1023
▁江西	-10.1028
考	-10.1034
▁稳	-10.1034
▁收藏	-10.1037
鞋	-10.1038
▁岛	-10.1039
▁皇帝	-10.1042
▁招生	-10.1044
▁出手	-10.1044
▁千万	-10.1048
▁碰	-10.1054
▁早已	-10.1054
▁国务院	-10.1058
显	-10.1058
牛	-10.1059
▁近年来	-10.106
迪	-10.1071
▁缺乏	-10.1074
▁物质	-10.1076
▁工厂	-10.1078
▁明星	-10.108
祖	-10.108
▁乔	-10.1084
▁愿	-10.1086
答案	-10.1088
▁2009	-10.1088
尊	-10.1109
▁手指	-10.1111
▁返	-10.1113
▁竴	-10.112
书记	-10.1123
▁赚钱	-10.1126
▁把握	-10.1128
▁挑	-10.1131
▁协助	-10.1133
▁元素	-10.1133
▁腿	-10.1135
酸	-10.1135
▁奖励	-10.1135
辉	-10.1137
▁机器	-10.1139
▁老婆	-10.114
▁出生	-10.1142
▁评	-10.1145
▁口气	-10.1147
▁一番	-10.115
▁恩	-10.1151
▁回收	-10.1152
▁社	-10.1153
▁怀	-10.1154
馨	-10.1168
▁节	-10.1172
▁黄色	-10.1181
▁日期	-10.1182
态	-10.1183
▁还会	-10.1183
▁转型	-10.1187
▁基层	-10.1189
▁时刻	-10.1191
▁诚信	-10.1192
紧	-10.1192
伯	-10.1198
▁舒适	-10.1205
▁住房	-10.1206
▁暂时	-10.1207
维	-10.1212
娜	-10.122
答	-10.122
▁吃饭	-10.1223
曲	-10.1229
洛	-10.123
▁港	-10.1233
▁北京市	-10.1234
▁乡	-10.1236
▁人工	-10.1236
能力	-10.1236
贵	-10.1238
▁文学	-10.124
▁测量	-10.1253
▁周边	-10.1254
▁洪	-10.1262
▁命	-10.1263
标	-10.1266
▁块状	-10.1266
▁诸	-10.127
▁铜	-10.127
▁妹妹	-10.1279
▁脑袋	-10.1288
千	-10.1292
▁女生	-10.1295
▁2008	-10.1301
▁售后	-10.1301
销	-10.1302
▁困	-10.1304
▁设立	-10.1306
▁沉	-10.131
▁吨	-10.1313
▁进步	-10.1313
▁密码	-10.1316
膀	-10.132
▁淘宝	-10.1327
▁上涨	-10.1331
▁擦	-10.1331
▁梦想	-10.1331
▁康	-10.1333
▁临床	-10.1335
屏	-10.1341
广	-10.1347
▁影	-10.1348
▁La	-10.1351
▁热情	-10.1351
▁Z	-10.1354
▁秋	-10.1356
▁全体	-10.1356
▁感染	-10.1358
11	-10.1362
▁无论是	-10.1365
坐	-10.1365
▁这边	-10.1366
▁实际上	-10.1374
徒	-10.138
▁神秘	-10.1382
梅	-10.1385
▁冒	-10.1387
▁贵州	-10.1389
▁路上	-10.1389
▁咖啡	-10.1389
▁第五	-10.1395
▁案件	-10.1395
▁回头	-10.1396
▁战争	-10.1404
▁合格	-10.1404
▁革命	-10.1406
▁财政	-10.1407
▁一座	-10.1408
守	-10.1411
嘴	-10.1412
六	-10.1415
▁沿	-10.1415
▁深度	-10.1416
▁吉	-10.1417
▁pk	-10.1421
尘	-10.1421
▁塔	-10.1421
▁撞	-10.1425
▁中文	-10.1432
▁想象	-10.1433
▁指挥	-10.1436
夏	-10.1441
支	-10.1442
▁禁	-10.1455
俊	-10.1457
▁大哥	-10.1459
▁物品	-10.1459
X	-10.146
▁大多数	-10.1461
▁划	-10.1464
▁一会儿	-10.1476
▁鞋	-10.1477
晨	-10.148
汤	-10.1482
行业	-10.1482
▁富	-10.1487
▁空调	-10.1489
▁史	-10.1502
为主	-10.1511
▁军事	-10.1515
品质	-10.1516
▁消防	-10.1517
▁细节	-10.1522
▁整合	-10.1524
▁旅行	-10.1525
▁最低	-10.1535
水平	-10.1535
▁维持	-10.1537
拳	-10.1539
▁傻	-10.1539
▁恶	-10.1541
▁参	-10.1546
▁美食	-10.1547
▁先后	-10.1549
▁饭	-10.1551
▁研究生	-10.1552
▁灵魂	-10.1554
▁预期	-10.1558
锋	-10.1559
T	-10.1564
▁中华	-10.1565
▁提交	-10.1565
▁喷	-10.1571
▁足	-10.1574
F	-10.1577
▁学员	-10.1577
▁58	-10.158
▁聊天	-10.1581
▁加速	-10.1585
▁圈	-10.1589
▁农	-10.1589
▁预防	-10.159
珠	-10.1592
▁根	-10.1592
楚	-10.1597
▁塑料	-10.1605
戏	-10.1608
诀	-10.1614
▁素	-10.1614
▁猪	-10.1614
▁表演	-10.1616
▁t	-10.1621
▁透过	-10.1622
▁将军	-10.1631
▁生长	-10.1633
滑	-10.1634
逸	-10.1635
mm	-10.1638
▁簡	-10.1639
议	-10.1639
▁库存	-10.1639
▁起身	-10.1641
▁丰	-10.1641
▁不禁	-10.1642
▁模样	-10.1643
▁果	-10.1643
▁解决方案	-10.1644
意思	-10.1647
▁屼	-10.1648
▁一批	-10.165
▁层	-10.1653
富	-10.1656
▁配套	-10.1668
即	-10.1672
▁伟大	-10.1674
▁魏	-10.1676
▁一是	-10.1677
▁大力	-10.168
▁犯罪	-10.1681
营	-10.1682
▁深刻	-10.1682
▁啥	-10.1683
▁信心	-10.1686
▁夹	-10.1686
▁咬	-10.17
创	-10.1702
▁简	-10.1703
▁轮	-10.1703
▁货币	-10.1704
▁地下	-10.1706
▁坚定	-10.1707
众	-10.1708
▁Sm	-10.171
▁一大	-10.1711
轩	-10.1713
冰	-10.1714
▁一人	-10.1717
▁观	-10.1717
▁账号	-10.1719
裤	-10.1721
▁经理	-10.1721
▁逐步	-10.1727
▁舒服	-10.1731
▁一套	-10.1732
▁领先	-10.1733
▁差不多	-10.1733
▁必然	-10.1735
▁亲自	-10.1737
槸	-10.1746
冷	-10.175
备	-10.1757
▁机器人	-10.1757
▁一时	-10.1761
潮	-10.1783
▁灯	-10.1785
▁画面	-10.1788
▁引发	-10.1788
▁冲击	-10.179
▁采访	-10.1792
▁秘密	-10.1792
▁通讯	-10.1794
▁熟	-10.1794
p	-10.1795
▁不锈钢	-10.1795
▁荣	-10.1807
▁大大	-10.1811
▁名称	-10.1814
▁四川	-10.1815
▁地球	-10.1826
▁头发	-10.1827
▁营业	-10.1827
罪	-10.1829
▁截至	-10.183
▁尺寸	-10.1831
▁隐	-10.1832
▁法院	-10.1837
▁歌	-10.1838
▁如下	-10.1847
▁两位	-10.1855
▁商务	-10.1859
▁股东	-10.186
▁黑暗	-10.1864
▁厂商	-10.1865
▁泰	-10.1868
▁挡	-10.1874
▁CO	-10.1882
▁利润	-10.1889
乡	-10.1893
▁袁	-10.1895
▁围绕	-10.1895
h	-10.1895
▁医	-10.1896
▁一项	-10.1898
▁不由	-10.1902
er	-10.1902
▁乌	-10.1904
▁丹	-10.1909
▁公子	-10.191
▁总体	-10.1914
▁市民	-10.1915
持	-10.1917
材料	-10.1919
▁专利	-10.1921
▁身影	-10.1921
▁卫	-10.1926
▁描述	-10.1927
▁扑	-10.1927
▁Er	-10.1928
直	-10.193
方面	-10.1932
▁亿美元	-10.1937
▁留学	-10.1937
▁停车	-10.1939
▁内心	-10.1945
▁一生	-10.1949
▁替	-10.1953
▁对外	-10.1957
▁怀疑	-10.1958
▁不然	-10.1958
x	-10.196
唇	-10.196
棒	-10.1965
▁护	-10.197
▁广场	-10.1973
京	-10.1981
▁殿	-10.1983
▁胜	-10.1987
▁遭	-10.199
沙	-10.1991
绝	-10.1996
泰	-10.2
烈	-10.2001
▁便利	-10.2002
▁這	-10.2008
▁再说	-10.2008
▁冯	-10.2014
▁浓	-10.2018
像	-10.2021
末	-10.2022
▁厨房	-10.2024
▁公益	-10.2025
Y	-10.2033
项目	-10.2033
▁虚	-10.2033
▁权益	-10.2038
▁列	-10.2039
▁环节	-10.204
环境	-10.2041
▁链接	-10.2043
▁QQ	-10.2044
▁考核	-10.2047
▁学历	-10.2047
▁私服	-10.205
▁呆	-10.2052
▁躲	-10.2053
▁电商	-10.2057
▁线上	-10.2061
▁穿着	-10.2067
刚	-10.2069
▁爆发	-10.2074
▁铝	-10.2079
▁监控	-10.208
凤	-10.2083
▁没事	-10.2086
▁伸手	-10.2087
▁电力	-10.2092
▁好奇	-10.2094
▁论	-10.2096
▁照顾	-10.2097
▁一口气	-10.2097
险	-10.2101
▁好看	-10.2101
▁爬	-10.2104
厚	-10.2113
▁反正	-10.2113
▁尊重	-10.2115
▁居	-10.2119
段时间	-10.2122
▁驱动	-10.2124
金属	-10.2128
▁暴	-10.2129
▁室	-10.2129
叔	-10.2132
▁公园	-10.2132
▁自信	-10.2142
▁兵	-10.2142
▁凤	-10.2144
▁霍	-10.2148
▁一身	-10.2149
▁业绩	-10.2151
▁服装	-10.2153
藏	-10.2154
▁狼	-10.2155
▁高中	-10.2161
▁of	-10.2165
▁每日	-10.2166
▁三人	-10.2166
▁一面	-10.2169
▁配件	-10.2171
▁原创	-10.2173
▁便宜	-10.2181
露	-10.2183
▁各自	-10.2184
▁Pr	-10.2186
罩	-10.2187
▁优先	-10.2187
▁标志	-10.2193
烟	-10.2195
▁深化	-10.2201
杆	-10.2204
▁威	-10.2204
▁帝	-10.2206
▁骂	-10.2207
▁一半	-10.2207
▁混合	-10.2208
▁铺	-10.221
▁上下	-10.2211
▁略	-10.2211
屾	-10.2213
▁隐私	-10.2215
患	-10.2217
▁移	-10.2218
▁静	-10.2219
▁车型	-10.222
▁信用	-10.2229
▁适当	-10.2234
▁动态	-10.2239
▁隔	-10.224
▁非法	-10.224
▁尝试	-10.2242
▁弱	-10.2243
▁浣	-10.2245
▁迎来	-10.2249
▁应对	-10.2251
▁维	-10.2255
▁喂	-10.2257
▁添加	-10.226
▁标题	-10.2268
▁小小	-10.2272
▁紧紧	-10.2274
十	-10.229
▁废	-10.2294
▁瞧	-10.23
▁认可	-10.2302
▁辅助	-10.2304
▁身份证	-10.2313
▁分分	-10.2314
▁累计	-10.2314
季度	-10.2318
▁转移	-10.2322
▁手上	-10.2326
▁范	-10.2327
郎	-10.2328
▁账户	-10.2334
涛	-10.2336
裂	-10.2339
▁话题	-10.234
补	-10.234
▁思维	-10.2341
▁董事长	-10.2344
▁青春	-10.2345
▁竹	-10.2363
▁信任	-10.2364
▁好运	-10.2372
▁病毒	-10.2372
▁注明	-10.2375
▁注重	-10.2377
▁侧	-10.2378
▁中国科学院	-10.238
▁音	-10.2382
▁餐饮	-10.2382
瓶	-10.2393
▁流动	-10.2395
冲	-10.2396
▁铁路	-10.2397
连	-10.242
▁够	-10.2421
腾	-10.2421
▁峰	-10.2426
负	-10.2428
顺	-10.2432
▁空中	-10.2433
▁毫无	-10.2434
▁印象	-10.2436
试	-10.2438
▁出席	-10.244
L	-10.2442
▁i	-10.2444
▁肖	-10.2447
▁品种	-10.2448
▁争	-10.2451
切	-10.2459
▁告	-10.2466
▁航	-10.2469
▁十年	-10.2471
▁构建	-10.2471
尾	-10.2471
▁实验室	-10.2472
叫	-10.2473
讶	-10.2473
扎	-10.2475
▁耳	-10.2475
▁笑了	-10.2477
▁再也	-10.2481
狗	-10.2487
▁造型	-10.2489
▁拨	-10.249
▁唱	-10.2497
灏	-10.2498
句	-10.2499
b	-10.2504
▁害怕	-10.2505
糖	-10.2505
▁二是	-10.2508
▁邪	-10.251
▁宣	-10.2516
▁输出	-10.2517
▁一支	-10.2518
0	-10.252
▁激动	-10.2525
▁现有	-10.2527
▁蒙	-10.2529
▁天然	-10.253
▁谷	-10.2534
▁秀	-10.2539
▁通信	-10.2548
▁属性	-10.2548
▁护理	-10.2553
吉	-10.2555
▁胜利	-10.2557
▁检验	-10.2558
▁承认	-10.2559
序	-10.2562
▁有限	-10.2564
▁西安	-10.2564
▁透露	-10.2564
▁走出	-10.2572
▁400	-10.2576
▁拿出	-10.2578
▁页	-10.2578
▁走向	-10.2581
▁执法	-10.2583
▁粉丝	-10.2585
▁新增	-10.2586
▁孔	-10.2587
▁损害	-10.2592
▁警方	-10.2596
觉	-10.2599
▁扶贫	-10.26
▁抬	-10.2609
▁戏	-10.2614
皇	-10.2614
细	-10.2614
候	-10.262
▁福利	-10.2635
轻	-10.2638
▁监测	-10.264
▁击	-10.2651
庆	-10.2652
▁曲	-10.2654
▁拆	-10.266
毛	-10.2661
▁显	-10.2665
▁特征	-10.267
▁用来	-10.2672
▁予以	-10.2673
▁呈	-10.268
▁主持	-10.2681
▁水和	-10.2683
〉	-10.2683
▁部队	-10.2689
▁语	-10.2692
▁创意	-10.2693
鍦	-10.2697
▁普	-10.2703
航	-10.2706
败	-10.2708
▁关闭	-10.2708
顿	-10.2715
券	-10.2715
▁这句	-10.2717
▁提到	-10.2717
▁乡村	-10.272
▁拼	-10.2723
▁化妆	-10.2723
▁棋牌	-10.2725
体系	-10.2728
▁造	-10.2736
▁鏈	-10.2742
改	-10.2746
▁凝	-10.2746
▁一副	-10.2748
▁载	-10.2753
编	-10.2754
顾	-10.276
泉	-10.2769
▁通道	-10.2771
▁全力	-10.2777
▁枪	-10.2778
▁APP	-10.278
▁射	-10.2781
▁某些	-10.2789
▁大约	-10.2789
▁租赁	-10.2789
▁成交	-10.279
▁低于	-10.279
登	-10.2791
▁摇	-10.2792
▁篇	-10.2797
▁旁	-10.2797
▁饮食	-10.2804
▁事故	-10.2809
▁光芒	-10.281
▁骨	-10.2811
▁现金	-10.2816
▁冠军	-10.282
▁赢得	-10.2823
▁电池	-10.283
七	-10.2843
▁工资	-10.2844
▁居住	-10.2851
盖	-10.2852
柜	-10.286
霜	-10.2865
▁发货	-10.2866
册	-10.2867
▁军队	-10.2868
▁忘记	-10.2871
百	-10.2873
▁一部	-10.2874
活动	-10.2878
幅	-10.2878
浩	-10.2879
▁洞	-10.2881
▁本科	-10.2881
▁国产	-10.2887
虫	-10.2889
▁滚	-10.2889
w	-10.2895
八	-10.2897
▁慢	-10.2902
▁一颗	-10.2911
▁一对	-10.2915
妇	-10.2916
▁台北	-10.2917
▁档案	-10.2919
▁闻	-10.2928
▁小子	-10.2928
喜	-10.2932
▁什么样	-10.2933
▁万人	-10.2934
▁打击	-10.2935
▁区别	-10.2941
▁释放	-10.2941
▁一看	-10.2942
孔	-10.2944
▁斩	-10.2944
▁计	-10.2946
安全	-10.2949
▁碎	-10.2951
▁森林	-10.2952
▁透明	-10.2955
▁街道	-10.2958
作用	-10.2958
▁海洋	-10.2961
▁英文	-10.2962
▁服务器	-10.2964
▁搜	-10.2968
▁更为	-10.2968
▁数学	-10.2968
▁药品	-10.2976
▁高考	-10.2979
▁讓	-10.2979
▁调节	-10.2982
』	-10.2984
慢	-10.2985
▁吉林	-10.2987
害	-10.2993
旁	-10.2997
▁狠狠	-10.2998
半	-10.2998
合金	-10.3006
窗	-10.301
▁性格	-10.3012
▁受伤	-10.3018
出来	-10.3019
$	-10.3019
▁司机	-10.3022
涨	-10.3027
▁吕	-10.3028
黄	-10.3036
▁落地	-10.3038
▁表明	-10.3048
▁正好	-10.3048
笉	-10.3051
▁有时	-10.3052
▁差异	-10.3056
▁防控	-10.3057
▁兽	-10.3057
▁审查	-10.3058
误	-10.3068
▁明明	-10.3073
▁家居	-10.3078
苦	-10.3079
▁『	-10.3079
▁连忙	-10.3083
▁容	-10.3086
▁索	-10.3091
▁全省	-10.3091
▁幽	-10.3104
▁考察	-10.3109
▁源	-10.3114
勇	-10.3114
诊	-10.3115
▁牌	-10.3115
▁一带	-10.3116
▁服務	-10.3124
悉	-10.3127
▁丝毫	-10.3128
▁走势	-10.3128
▁凶	-10.3129
道理	-10.3136
盐	-10.3142
▁变更	-10.3143
▁不必	-10.3145
▁面试	-10.3146
▁托	-10.3147
盒	-10.3149
丁	-10.3149
恨	-10.315
▁夺	-10.3151
坏	-10.3154
▁一分	-10.3156
▁砸	-10.3156
▁扣	-10.3157
学院	-10.3159
▁点点头	-10.316
▁切实	-10.3162
▁32	-10.3163
▁使命	-10.3164
敌	-10.317
y	-10.3172
▁贫困	-10.3173
鍚	-10.3178
r	-10.3181
▁戒	-10.3183
▁本地	-10.3187
▁一层	-10.3189
▁随即	-10.3191
▁飞行	-10.3192
▁更换	-10.3194
▁命令	-10.3196
幕	-10.3199
▁姓名	-10.3208
▁厂家直销	-10.321
▁实用	-10.3211
防	-10.3214
▁供应商	-10.3216
▁神色	-10.322
▁节能	-10.3221
▁蛋	-10.3229
▁犹	-10.323
▁從	-10.3232
▁理	-10.3237
▁学科	-10.3238
▁核	-10.3239
▁遭遇	-10.3241
▁平静	-10.3241
▁灰色	-10.3242
▁甜	-10.3246
▁怒	-10.3246
▁本网	-10.3248
▁美容	-10.325
▁集体	-10.3254
▁温暖	-10.3258
嘉	-10.3259
▁仅仅	-10.326
▁深深	-10.3261
▁老公	-10.3265
慧	-10.327
▁神经	-10.327
▁无限	-10.3273
▁大幅	-10.3285
忧	-10.3289
付	-10.3294
▁尾	-10.3296
▁净	-10.3297
▁聚	-10.3298
▁一线	-10.3301
▁管道	-10.3301
▁避	-10.3305
▁旅	-10.3307
▁愈	-10.3317
▁极大	-10.3317
▁公平	-10.3318
设施	-10.3318
▁反对	-10.3322
饰	-10.3328
虚	-10.333
燕	-10.3334
▁兰	-10.3336
▁箱	-10.3344
▁请求	-10.3354
▁好处	-10.3355
▁承	-10.3357
▁种植	-10.3361
柱	-10.3362
▁采	-10.3365
▁情感	-10.3367
▁一旁	-10.337
▁执	-10.3372
留	-10.3373
臣	-10.3378
穿	-10.3379
芳	-10.3385
▁批	-10.3385
▁总部	-10.3389
▁影视	-10.339
该	-10.3391
曼	-10.3391
景区	-10.3395
▁★	-10.3395
▁履行	-10.3401
凌	-10.3406
▁朝着	-10.3407
▁播放	-10.3407
▁决策	-10.3422
▁個	-10.3424
大学生	-10.3425
颜	-10.3439
▁十八	-10.3441
▁转变	-10.3441
▁女士	-10.3441
卖	-10.3445
告	-10.3445
▁建成	-10.3446
▁普遍	-10.3447
▁唇	-10.3449
▁职工	-10.345
N	-10.3455
▁岂	-10.3455
▁报价	-10.3456
▁极为	-10.3457
k	-10.3459
▁放下	-10.3459
▁肌肤	-10.3461
▁府	-10.3464
▁石油	-10.3468
▁跌	-10.3474
▁处置	-10.3475
▁瞪	-10.3476
▁不久	-10.3478
准	-10.3482
▁舞	-10.3482
▁33	-10.3484
▁脑	-10.3484
▁寻	-10.3493
l	-10.3494
▁破解	-10.3494
溪	-10.35
▁基本上	-10.3502
▁绝不	-10.3502
▁填写	-10.3502
▁拿到	-10.3502
▁模型	-10.3502
殿	-10.3502
什么	-10.3503
▁特性	-10.3504
▁烦	-10.3507
湿	-10.3513
▁無	-10.3514
▁各级	-10.3525
▁秘书	-10.3531
▁西方	-10.3533
▁投注	-10.3534
▁彼此	-10.3535
▁庄	-10.3537
▁词	-10.3539
▁常常	-10.354
▁夫妻	-10.3544
▁37	-10.3544
▁生意	-10.3546
▁全市	-10.3547
产业	-10.355
▁互相	-10.355
▁知识产权	-10.355
姆	-10.3551
▁纪念	-10.3553
t	-10.3556
▁瑞	-10.3562
▁帝国	-10.3567
▁甘肃	-10.3571
▁三大	-10.3571
圣	-10.3571
▁修复	-10.3574
▁市委	-10.3578
▁号码	-10.3579
▁理财	-10.3579
▁全文	-10.358
▁势力	-10.3583
▁案	-10.3585
▁一会	-10.3591
▁认	-10.3592
普	-10.3593
▁参观	-10.3593
▁一下子	-10.3594
▁用品	-10.3597
▁股权	-10.3606
机关	-10.3609
▁灭	-10.361
▁士兵	-10.3613
▁一流	-10.3613
▁京	-10.3616
▁榜	-10.3618
▁平安	-10.362
▁司	-10.362
▁视觉	-10.3623
如此	-10.3627
▁厂	-10.3631
谓	-10.3631
▁收购	-10.3631
▁定期	-10.3632
▁题	-10.3633
肯	-10.3633
▁民众	-10.3639
▁寄	-10.3642
▁骑	-10.3648
急	-10.3652
▁尽快	-10.3654
▁警察	-10.3659
▁设定	-10.3666
▁另一	-10.3666
听	-10.3667
▁细胞	-10.3667
▁签	-10.3667
▁命运	-10.3672
▁引进	-10.3673
▁k	-10.3678
赢	-10.3679
▁调研	-10.3679
▁疯	-10.3682
▁导演	-10.3685
▁帮忙	-10.3686
导	-10.3688
▁私	-10.3688
▁十三	-10.3689
▁三分	-10.3691
▁生存	-10.37
▁看出	-10.3701
▁Dy	-10.3702
▁保健	-10.3713
▁锁	-10.3713
▁营	-10.3715
▁特定	-10.3717
▁和谐	-10.3718
邦	-10.372
过来	-10.372
▁远远	-10.3722
▁俱乐部	-10.3724
▁一群	-10.3725
c	-10.3733
▁IP	-10.3734
▁湖南	-10.3737
▁宝贝	-10.3738
▁患	-10.374
▁弹	-10.3742
古	-10.3745
▁蒋	-10.3754
岩	-10.3756
▁娇	-10.3756
▁磨	-10.3759
▁抬头	-10.3762
▁中学	-10.3766
耳	-10.3767
意识	-10.3768
典	-10.3772
▁随便	-10.3777
ing	-10.3777
▁脚步	-10.3784
▁扶	-10.3785
苏	-10.3786
▁频道	-10.3787
o	-10.3797
〔	-10.3798
▁一刻	-10.3809
▁甲	-10.381
降	-10.381
辞	-10.3811
▁沉默	-10.3811
▁消耗	-10.3814
▁恨	-10.3818
▁打破	-10.3821
聚	-10.3825
▁吐	-10.383
•	-10.3831
鸡	-10.3832
▁吊	-10.3835
▁料	-10.3836
振	-10.3838
▁未经	-10.3844
▁故意	-10.3846
临	-10.3847
▁询问	-10.3851
▁识别	-10.3852
▁之内	-10.3853
氛	-10.3855
▁男性	-10.3855
▁转化	-10.3859
欲	-10.3861
▁总书记	-10.3862
▁房产	-10.3862
▁温柔	-10.3869
▁助	-10.387
▁到来	-10.3876
▁华为	-10.3882
劲	-10.3888
▁四周	-10.3893
▁电源	-10.3894
▁服	-10.39
▁拓展	-10.3904
▁炒	-10.3905
廷	-10.3906
▁上线	-10.3906
恼	-10.3907
昌	-10.391
▁群体	-10.3912
臂	-10.3914
▁供给	-10.3916
▁凭借	-10.3924
▁达成	-10.3928
▁湿	-10.3929
▁暖	-10.3929
▁跪	-10.3929
缓	-10.3935
▁87	-10.3936
▁读者	-10.3943
▁星期	-10.3945
▁术	-10.3946
▁新疆	-10.3947
▁鲜	-10.3947
▁院长	-10.3948
▁密度	-10.3948
▁叹	-10.3949
{	-10.3949
▁胃	-10.3949
针	-10.395
策	-10.3952
癌	-10.3957
▁有个	-10.3959
▁委托	-10.3962
隆	-10.3966
▁董	-10.3969
▁杯	-10.3972
予	-10.3978
▁卢	-10.3979
▁o	-10.3981
▁用力	-10.3984
Q	-10.3985
豪	-10.3993
▁传承	-10.3993
▁灵活	-10.3998
一方面	-10.3999
总	-10.4001
▁外国	-10.4002
诗	-10.4003
▁防护	-10.4003
▁婚姻	-10.4005
背	-10.4006
▁赔偿	-10.4009
没	-10.4013
▁申报	-10.4015
▁健身	-10.4017
▁抹	-10.4019
}	-10.402
伏	-10.4024
▁欣赏	-10.4026
▁传说	-10.4035
▁务	-10.4035
▁民主	-10.4038
▁璇	-10.4042
▁老大	-10.4043
n	-10.4044
▁51	-10.4046
●	-10.4047
▁昨	-10.4048
▁已有	-10.4051
▁爷爷	-10.4055
〈	-10.4057
▁传递	-10.4059
洲	-10.4066
▁货物	-10.4066
▁陷入	-10.4073
不了	-10.4073
▁配送	-10.4075
▁应急	-10.4076
▁随意	-10.4078
▁引领	-10.4078
▁多元	-10.4078
弹	-10.4078
祥	-10.4079
▁前来	-10.4081
▁发送	-10.4084
▁屋	-10.4084
a	-10.4085
▁2007	-10.409
篇	-10.4092
▁持有	-10.4096
▁飘	-10.4102
径	-10.4103
▁告知	-10.4104
▁正规	-10.4108
模	-10.411
▁×	-10.4111
▁加拿大	-10.4113
▁镓	-10.4114
▁份	-10.4115
共	-10.4116
雄	-10.4122
问题	-10.4122
▁乃	-10.4123
▁哥	-10.4123
▁智	-10.4127
▁动手	-10.413
▁付出	-10.4132
▁罪	-10.4134
▁专题	-10.414
惜	-10.4141
▁面向	-10.4143
▁故障	-10.4143
▁演出	-10.4148
▁苍	-10.415
▁扔	-10.4157
▁隐藏	-10.4162
▁现代化	-10.4162
u	-10.4163
▁存储	-10.4163
鸟	-10.4171
▁闹	-10.4177
▁塞	-10.4186
▁毕业生	-10.4186
庭	-10.419
▁超越	-10.4194
▁警	-10.42
征	-10.4201
▁充	-10.4202
▁养老	-10.4203
▁和平	-10.4204
▁义务	-10.4208
鹏	-10.4208
▁乙	-10.4213
▁嘴角	-10.4216
洁	-10.4221
▁人工智	-10.4222
▁实体	-10.4222
塞	-10.4223
▁演员	-10.4225
舰	-10.4226
▁浑身	-10.4228
翼	-10.4231
密	-10.4233
▁奔	-10.4241
皇上	-10.4243
▁鼻	-10.425
▁迎	-10.425
▁薛	-10.4253
会议	-10.426
f	-10.4261
▁丝	-10.4264
▁犯	-10.4264
▁五年	-10.4266
▁商标	-10.4267
健	-10.4267
墨	-10.4268
▁累	-10.4269
巧	-10.427
▁男女	-10.4274
已	-10.4275
护	-10.4278
▁东北	-10.4282
▁储	-10.4285
晶	-10.4286
扣	-10.4303
▁临时	-10.4305
▁财富	-10.4312
▁猜	-10.4315
▁將	-10.4318
▁误	-10.4319
▁丈夫	-10.4321
勒	-10.4327
▁保养	-10.4332
伐	-10.4333
▁特朗普	-10.4333
▁带动	-10.4335
救	-10.4336
▁认定	-10.434
▁毫不	-10.4344
▁行程	-10.4347
▁大声	-10.4353
▁双眼	-10.4353
▁块	-10.4354
▁对付	-10.4364
▁一本	-10.4366
本文	-10.4367
兄	-10.437
e	-10.4371
眼里	-10.4374
▁材质	-10.438
▁启	-10.4383
▁揉	-10.4385
▁敌	-10.4386
▁闲	-10.4396
银行	-10.4397
▁彭	-10.4403
艇	-10.4407
▁泡	-10.4409
▁生气	-10.441
尖	-10.4411
▁杂志	-10.4419
▁聪明	-10.442
宾	-10.4421
▁涂	-10.4421
童	-10.4422
▁坚决	-10.4427
▁150	-10.443
▁订	-10.4431
▁浅	-10.4434
▁陶	-10.4434
▁十九	-10.4434
▁一级	-10.4434
▁回忆	-10.4435
▁养殖	-10.4439
▁灰	-10.4444
▁促	-10.4446
朗	-10.4446
档	-10.4448
▁阁	-10.4451
▁会计	-10.4452
▁迷	-10.4452
▁周期	-10.446
▁水果	-10.4462
犯	-10.4463
▁小组	-10.4464
▁仪式	-10.4464
鎴	-10.4464
▁甘	-10.4465
▁遵守	-10.4467
两	-10.4469
菲	-10.447
平台	-10.4472
▁一個	-10.4472
▁激光	-10.4475
▁http	-10.4479
▁有趣	-10.4481
▁原理	-10.4485
▁预算	-10.4488
▁本书	-10.4488
▁病人	-10.4494
▁课	-10.45
▁魅力	-10.4502
▁有机	-10.4502
助	-10.4503
▁意大利	-10.4506
▁证据	-10.4508
ed	-10.4509
▁江湖	-10.451
▁出行	-10.4512
▁淡	-10.4514
▁办事	-10.4517
琴	-10.4518
▁语气	-10.452
▁统	-10.452
▁店铺	-10.452
▁潘	-10.4522
▁几分	-10.4524
▁二手	-10.4528
脑	-10.4529
▁导	-10.4532
▁贝	-10.4535
▁r	-10.4539
回事	-10.4546
▁钻	-10.455
▁议	-10.4551
▁收获	-10.4556
需	-10.4561
处理	-10.4561
▁举	-10.4563
▁激烈	-10.4567
▁春节	-10.4567
▁宗	-10.4568
▁形势	-10.4568
▁愤	-10.457
▁嫁	-10.4573
▁波动	-10.4574
▁缺	-10.4581
▁乳	-10.4585
▁循环	-10.4588
▁中小	-10.4589
▁影响力	-10.4597
医院	-10.4598
▁今后	-10.4601
▁鲁	-10.4604
▁利率	-10.4604
▁读书	-10.4607
锁	-10.4611
经济	-10.4612
▁审批	-10.4612
▁催	-10.4615
▁逛	-10.4616
▁发言	-10.4626
琳	-10.4638
▁互	-10.4645
▁村民	-10.4649
▁不算	-10.4649
▁转换	-10.465
获	-10.4653
且	-10.4655
▁住宅	-10.4658
▁舞台	-10.4658
网站	-10.466
▁血液	-10.4661
▁犹豫	-10.4665
人士	-10.4667
写	-10.467
岸	-10.4673
缘	-10.4679
法院	-10.4685
鸣	-10.469
▁燕	-10.4691
▁发动机	-10.4693
▁其他人	-10.4696
▁遗漏	-10.4698
人民政府	-10.4705
▁总经理	-10.4711
▁频	-10.4713
▁担	-10.4714
▁薄	-10.4715
熟	-10.472
▁安静	-10.4721
▁部长	-10.4721
▁财产	-10.4722
▁大门	-10.4724
▁社交	-10.4724
▁印刷	-10.4727
示	-10.4728
委会	-10.4728
▁迈	-10.473
i	-10.4731
▁凯	-10.4733
▁见面	-10.4734
▁线路	-10.4736
靠	-10.4737
▁实时	-10.4739
鍒	-10.4741
▁公路	-10.4745
▁蛇	-10.4746
▁师傅	-10.4746
▁踩	-10.4748
▁桥	-10.4751
▁资质	-10.4755
▁牵	-10.4758
▁主办	-10.4767
下去	-10.4773
▁档	-10.4777
▁晋	-10.4777
工作	-10.4789
▁签订	-10.4791
▁汇	-10.4795
▁不良	-10.4798
時	-10.48
▁物理	-10.4803
▁策划	-10.4805
▁上班	-10.4808
▁危机	-10.4809
农	-10.481
永	-10.4812
▁功夫	-10.4812
▁自觉	-10.4815
▁腹	-10.4816
▁敬	-10.4816
▁婴儿	-10.4816
▁火车	-10.4827
腿	-10.4827
▁內	-10.4827
▁视为	-10.4829
官员	-10.483
▁单独	-10.4834
摸	-10.4836
▁麦	-10.4836
▁典型	-10.4837
▁复制	-10.4843
▁34	-10.4846
温	-10.4849
▁论文	-10.485
▁修为	-10.4852
▁库	-10.4852
▁害	-10.4855
▁癫痫	-10.4855
▁可见	-10.4856
▁很难	-10.4861
▁宠物	-10.4864
丰	-10.4867
▁教育部	-10.4869
▁说法	-10.487
▁个性	-10.4875
▁接下	-10.4875
▁干燥	-10.4875
复	-10.4876
▁劝	-10.4877
▁练	-10.4881
▁信誉	-10.4882
▁付款	-10.4882
价格	-10.4889
▁成分	-10.4894
▁巧	-10.4897
▁透	-10.4897
▁半个	-10.4902
v	-10.4904
▁秘	-10.4907
▁多么	-10.4907
▁共有	-10.491
▁600	-10.4911
▁新鲜	-10.4915
▁防御	-10.4915
▁对话	-10.4917
▁周年	-10.4919
▁一行	-10.4925
▁奋斗	-10.4925
─	-10.4926
▁整改	-10.4927
▁人人	-10.4928
▁之所以	-10.4932
▁编	-10.4932
▁宇宙	-10.4932
▁脱贫	-10.4935
▁委员	-10.4936
▁部位	-10.4937
▁尚未	-10.4939
來	-10.4939
▁同步	-10.4941
▁u	-10.4942
▁下跌	-10.4942
▁欺	-10.4942
▁触	-10.4943
▁野	-10.4946
▁撤	-10.4946
▁光学	-10.4948
▁童	-10.495
▁大多	-10.4954
▁连载	-10.4962
▁长老	-10.4962
▁返回	-10.4963
▁宜	-10.4967
▁拟	-10.4968
▁十大	-10.497
稿	-10.4973
售	-10.4974
▁刊	-10.4975
▁承受	-10.4976
阀	-10.4981
▁顿	-10.4985
▁单双	-10.4986
▁爆炸	-10.4986
▁孤	-10.4987
▁想想	-10.4988
▁积累	-10.499
▁青岛	-10.4996
▁一双	-10.4997
▁恒	-10.4997
▁以便	-10.4999
▁傅	-10.5012
▁御	-10.5012
▁分布	-10.5012
▁补贴	-10.5014
忠	-10.5014
▁纵	-10.502
▁撕	-10.5023
▁挖	-10.5025
造	-10.5031
▁规	-10.5035
▁强度	-10.5038
历	-10.504
▁佳	-10.5041
▁2006	-10.5044
▁重复	-10.5045
▁分彩	-10.5046
▁清理	-10.5049
▁疼	-10.5051
属	-10.5059
▁不怕	-10.5064
政策	-10.5066
▁片刻	-10.5068
▁四大	-10.5073
炮	-10.5074
▁請	-10.5077
▁操	-10.508
▁屏幕	-10.5083
▁冷笑	-10.5089
▁分配	-10.5094
磨	-10.5095
练	-10.5097
▁仪器	-10.5099
▁贾	-10.5103
不上	-10.5105
▁镜	-10.5109
▁瀹	-10.5109
▁颇	-10.5112
▁对比	-10.5113
▁嘴里	-10.5117
不得	-10.5128
▁约定	-10.5131
▁第六	-10.5131
碎	-10.5132
▁云南	-10.5133
▁集成	-10.5136
▁级别	-10.5138
举	-10.5142
▁凉	-10.5143
▁试点	-10.5143
▁伸出	-10.5144
▁付	-10.5148
▁京东	-10.5148
▁标签	-10.5149
▁较为	-10.5164
▁十几	-10.5166
▁摔	-10.5168
▁太子	-10.5169
▁物业	-10.5171
▁形	-10.5173
▁三元	-10.5176
▁举报	-10.5178
▁不让	-10.5178
鍏	-10.5179
▁捏	-10.5182
俩	-10.5183
▁驻	-10.519
▁残	-10.519
▁手续	-10.5193
柔	-10.5194
▁熊	-10.5194
▁工程师	-10.5195
▁翻译	-10.52
▁练习	-10.5201
▁姚	-10.5205
▁虚拟	-10.5206
瓦	-10.521
主义	-10.521
▁蔬菜	-10.5212
▁in	-10.5216
▁充电	-10.5216
▁池	-10.5217
▁抛	-10.522
▁敏感	-10.5221
▁煮	-10.5221
▁场所	-10.5222
玄	-10.5224
▁苏州	-10.523
▁睡觉	-10.523
▁贺	-10.5233
胶	-10.5233
技	-10.5235
▁依靠	-10.5245
▁中医	-10.5254
润	-10.5257
▁曝光	-10.5257
▁露	-10.5268
▁其余	-10.5272
▁120	-10.5273
▁二十	-10.5274
▁火焰	-10.5277
毕	-10.5277
▁撒	-10.5281
▁租房	-10.5282
般	-10.5282
浪	-10.5283
▁后期	-10.5286
籍	-10.5286
瑶	-10.5286
帮	-10.5299
▁扯	-10.5301
▁年纪	-10.5302
供	-10.5302
▁法师	-10.5304
▁团体	-10.5308
▁液体	-10.5309
▁惨	-10.5312
▁胶	-10.5314
▁销量	-10.5318
莉	-10.5322
玲	-10.5323
▁投诉	-10.5327
▁改进	-10.5336
▁矛盾	-10.5339
▁有利于	-10.5339
▁氟化	-10.5347
贤	-10.5354
▁自动化	-10.5355
▁业主	-10.5355
▁备	-10.5356
▁爹	-10.5356
泵	-10.5361
软件	-10.5362
落实	-10.5363
检	-10.5371
桌	-10.5373
签	-10.5377
▁票	-10.5381
▁差点	-10.5381
▁民间	-10.5382
▁一根	-10.5383
▁Tb	-10.5385
悦	-10.5388
▁填	-10.539
性质	-10.5391
▁觉	-10.5391
▁斜	-10.5393
▁尊	-10.5403
▁尴尬	-10.5406
▁身材	-10.5408
廊	-10.5415
)	-10.5415
▁准	-10.542
矿	-10.542
眉	-10.5421
乘	-10.5421
▁终	-10.5423
艺	-10.5425
▁传输	-10.5426
▁象	-10.5429
▁凤凰	-10.5433
播	-10.5437
▁名单	-10.544
优	-10.5441
▁疏	-10.5442
▁有时候	-10.5444
▁难度	-10.5451
▁炸	-10.5454
▁排放	-10.5457
妃	-10.5466
▁各大	-10.5474
▁模拟	-10.5477
▁祝	-10.5477
▁责	-10.5479
▁老爷	-10.5479
▁庞大	-10.5481
医	-10.5482
▁因而	-10.5482
▁培育	-10.5484
▁破碎	-10.5487
▁账	-10.5488
▁硕士	-10.5489
▁攻坚	-10.5501
归	-10.5504
▁更大	-10.5505
▁密封	-10.5511
不定	-10.5511
▁挑选	-10.5511
▁传送	-10.5516
核	-10.5521
▁末	-10.5523
忙	-10.5523
▁半年	-10.5527
址	-10.5529
▁欧阳	-10.5531
洋	-10.5531
用品	-10.5532
▁猎	-10.5533
▁搜集	-10.5535
▁机动车	-10.5536
▁高温	-10.5537
▁Gd	-10.5542
▁心思	-10.5543
凯	-10.5544
▁积	-10.5544
▁损	-10.5546
▁扭	-10.5549
▁前提	-10.5551
刑	-10.5558
蛇	-10.5559
▁Ce	-10.5561
封	-10.5562
井	-10.5565
▁防水	-10.5569
依	-10.557
▁扎	-10.5571
银	-10.5572
▁之力	-10.5574
▁角	-10.5575
▁踢	-10.5581
▁十一	-10.5582
▁上网	-10.5582
▁复合	-10.5583
姨	-10.5584
▁两天	-10.5589
▁老年	-10.559
▁域名	-10.559
▁自从	-10.5591
▁签约	-10.5594
▁糖	-10.5601
掌	-10.5607
增	-10.5616
▁种类	-10.5617
▁放松	-10.5619
▁口中	-10.5627
▁10031	-10.5628
玻璃	-10.5638
▁始	-10.5639
▁那天	-10.564
▁真人	-10.5643
▁递	-10.5645
▁赴	-10.5647
▁猴	-10.5648
▁趁	-10.5649
▁联网	-10.5649
资源	-10.5654
▁证书	-10.5655
▁工人	-10.5657
▁LED	-10.5657
▁馆	-10.5658
吃	-10.5659
▁那时	-10.5659
▁sf	-10.566
透	-10.5665
▁长时间	-10.5665
▁减肥	-10.5666
▁研究院	-10.567
折	-10.5673
▁珍	-10.5679
▁疼痛	-10.5682
▁对面	-10.5682
▁路线	-10.5689
枫	-10.5689
貌	-10.5692
▁沙发	-10.5694
▁百姓	-10.5702
▁砍	-10.5704
▁赔	-10.5705
▁任何人	-10.5705
莲	-10.571
软	-10.5711
▁新开	-10.5711
▁担保	-10.5714
▁信用卡	-10.5714
▁感动	-10.5717
▁转过	-10.5722
▁浪费	-10.5728
▁两次	-10.5729
al	-10.5734
▁进攻	-10.5739
▁道德	-10.5743
账	-10.5744
▁其次	-10.5749
▁神情	-10.5749
▁法规	-10.5749
▁退出	-10.575
▁郑州	-10.575
▁补偿	-10.5751
▁抬起	-10.5754
▁欧美	-10.5759
▁怀里	-10.5759
▁10025	-10.5759
▁于酸	-10.5762
妻	-10.5766
▁有权	-10.5767
▁不太	-10.5767
▁无需	-10.5768
▁中华人民共和国	-10.577
骤	-10.5775
▁惹	-10.5778
▁发放	-10.5781
▁屏	-10.5783
▁全程	-10.5783
▁_.	-10.5785
▁测	-10.5787
▁中共	-10.5788
舍	-10.579
q	-10.5793
▁确	-10.5798
▁古代	-10.58
▁转让	-10.58
诚	-10.5804
▁登陆	-10.5805
▁邓	-10.5815
▁希	-10.5818
▁战场	-10.5818
▁y	-10.5819
▁几次	-10.5827
▁向前	-10.5831
警	-10.5832
▁整治	-10.5837
▁住宿	-10.5839
希	-10.584
▁日至	-10.5843
纪	-10.5845
▁上传	-10.5846
组织	-10.5847
▁短期	-10.5849
审	-10.5853
▁魂	-10.5854
▁烤	-10.5854
▁購	-10.5856
▁手下	-10.5859
▁掌	-10.586
趣	-10.5863
▁手臂	-10.5865
▁光明	-10.5865
砖	-10.5865
椅	-10.5866
▁怀孕	-10.5871
锅	-10.5876
▁打电话	-10.5883
▁显著	-10.5883
讯	-10.5889
日电	-10.5892
凉	-10.5892
▁重量	-10.5893
▁房价	-10.5899
▁热门	-10.5901
▁研究所	-10.5901
▁盈利	-10.5903
▁状	-10.5904
▁激情	-10.5904
▁以往	-10.5904
▁控股	-10.5904
▁伴随	-10.5907
為	-10.591
▁叔	-10.591
E	-10.5916
▁权威	-10.5922
▁义	-10.5927
务	-10.5937
▁风景	-10.5939
欣	-10.5939
▁婚	-10.5944
▁Lu	-10.5947
▁青少年	-10.5949
▁剧情	-10.5951
妹	-10.5956
▁发布会	-10.5958
▁配备	-10.5961
尸	-10.5966
▁右手	-10.5966
陵	-10.5968
▁支出	-10.5969
▁入口	-10.5974
▁万吨	-10.5977
移	-10.5982
侵犯	-10.5982
▁地震	-10.5984
▁无疑	-10.5985
▁危害	-10.5987
▁对应	-10.5989
▁肌肉	-10.5991
▁鸟	-10.5995
婆	-10.5999
▁好评	-10.6003
▁财	-10.6008
▁堆	-10.6011
躯	-10.6014
▁一手	-10.6015
▁五个	-10.6018
▁营造	-10.602
▁好几	-10.6026
▁揭	-10.6029
▁持	-10.6029
▁水泥	-10.6031
卫生	-10.6038
▁尸体	-10.6039
▁录取	-10.604
▁瓶	-10.6041
攻	-10.6044
▁眉头	-10.6044
▁在内	-10.6048
▁园	-10.6049
▁除非	-10.6051
▁报警	-10.6055
▁前后	-10.6063
j	-10.6068
▁打印	-10.6069
疼	-10.607
▁尖	-10.6072
宸	-10.6074
▁职责	-10.6075
▁75	-10.6076
▁小米	-10.6079
▁长大	-10.6079
▁户外	-10.608
▁精灵	-10.6081
▁户	-10.6084
▁堂	-10.6084
▁氛围	-10.6086
▁食用	-10.6087
▁出门	-10.609
亡	-10.6092
▁一周	-10.6096
▁反复	-10.6102
▁币	-10.6106
▁大厅	-10.6107
▁诺	-10.6107
梁	-10.611
▁蛋白	-10.6115
▁惊喜	-10.6116
锦	-10.6117
▁活力	-10.6122
▁当日	-10.6137
▁胆	-10.6142
投	-10.6144
纹	-10.6147
故	-10.6148
▁一处	-10.6148
▁旅客	-10.6149
旅	-10.6151
▁另一方面	-10.6152
▁消除	-10.6154
赞	-10.6156
寺	-10.6165
责	-10.6167
洗	-10.6171
缺	-10.6172
▁期限	-10.6178
汗	-10.6179
秘	-10.6181
▁筹	-10.6181
▁心灵	-10.6182
▁嘿嘿	-10.6189
▁小型	-10.6192
▁简介	-10.6208
袍	-10.6209
提	-10.6213
▁怎	-10.6219
▁素质	-10.6227
▁积分	-10.6227
▁暨	-10.6232
方式	-10.6235
电话	-10.6242
▁攻略	-10.6244
▁凝聚	-10.6245
迹	-10.6246
▁岳	-10.625
▁穆	-10.6251
方位	-10.6255
▁校长	-10.6256
▁首页	-10.6258
勫	-10.6259
▁夏天	-10.626
▁怔	-10.6262
鲁	-10.6262
▁劲	-10.6262
只	-10.6265
阶	-10.6265
措施	-10.6266
▁辆	-10.6268
▁常用	-10.6275
▁靠近	-10.6275
▁1.5	-10.6276
▁国有	-10.6277
己	-10.6288
▁良	-10.6291
炉	-10.6291
出版社	-10.6292
▁申	-10.6293
▁饮	-10.6293
▁期货	-10.6296
一笑	-10.6301
▁代码	-10.6306
▁不满	-10.6306
宏	-10.6307
▁财经	-10.6309
▁菩萨	-10.6318
▁激	-10.6324
▁刮	-10.6325
▁尤	-10.6325
旗	-10.6326
▁辛	-10.6334
▁不成	-10.6335
仅仅	-10.6336
▁哄	-10.6337
▁燃烧	-10.6348
▁不当	-10.635
▁建造	-10.635
圆	-10.6351
竹	-10.6352
▁肾	-10.6353
▁省级	-10.6355
▁参数	-10.6356
▁运作	-10.636
须	-10.6371
▁族	-10.6373
干部	-10.6377
▁散发	-10.6379
▁大道	-10.6379
▁延长	-10.6384
行为	-10.6384
▁玩具	-10.6385
▁人力资源	-10.6386
▁海南	-10.6388
▁高清	-10.6389
▁骑士	-10.6391
▁课堂	-10.6394
▁估	-10.6397
▁混凝土	-10.6401
晴	-10.6403
▁辅导	-10.6412
▁聚集	-10.6413
▁肚子	-10.6415
恒	-10.6417
▁政	-10.6417
▁看上	-10.6418
▁大气	-10.6418
▁南方	-10.642
唱	-10.6424
▁老头	-10.6427
狼	-10.643
▁纳入	-10.6431
▁阻止	-10.6432
▁崔	-10.6433
眸	-10.6435
▁闭	-10.6436
泪	-10.644
我	-10.6443
▁心态	-10.6443
弟	-10.6446
测	-10.6451
▁移民	-10.6452
繖	-10.6452
▁助力	-10.6452
欢	-10.6455
▁情节	-10.6459
莫	-10.6462
财	-10.6462
尺	-10.6464
宿	-10.6466
▁开关	-10.6467
跳	-10.647
▁终端	-10.6471
蒂	-10.6474
▁截	-10.6475
▁好多	-10.6477
▁时光	-10.6479
置	-10.6482
均	-10.6483
▁好吃	-10.649
▁回归	-10.6496
敬	-10.6498
▁模块	-10.6501
▁诊断	-10.6504
▁以免	-10.6506
收入	-10.6507
粒	-10.6508
▁十五	-10.6512
▁娘	-10.6513
益	-10.6518
脱	-10.652
卿	-10.6521
▁业内	-10.6522
结合	-10.6523
▁排列	-10.6525
▁从未	-10.6529
▁长沙	-10.6529
▁均匀	-10.6531
▁蓝色	-10.6531
▁纪	-10.6532
艳	-10.6536
▁都市	-10.654
薄	-10.654
▁佩	-10.6544
▁惠	-10.6545
▁53	-10.6554
▁布置	-10.6554
幸	-10.6557
▁精心	-10.6557
▁弟弟	-10.6558
▁私人	-10.656
▁石头	-10.656
呼	-10.6561
▁实习	-10.6561
▁基因	-10.6565
▁电机	-10.6565
刻	-10.6568
▁漏洞	-10.657
便	-10.6571
▁选手	-10.6572
▁展览	-10.6575
▁气体	-10.6576
▁为此	-10.6577
▁低头	-10.6579
冬	-10.6583
▁杂	-10.6584
▁肝	-10.6589
▁别墅	-10.6589
▁接收	-10.6591
▁唯	-10.6592
▁脖子	-10.6593
▁气质	-10.6595
霞	-10.6602
园区	-10.6606
▁凑	-10.661
▁平方米	-10.661
▁收拾	-10.6613
▁作战	-10.6613
▁足以	-10.6615
▁世界杯	-10.6615
▁炼	-10.6624
▁向着	-10.6625
▁快三	-10.6626
▁公民	-10.6628
▁掀	-10.663
▁验证	-10.663
▁冬	-10.663
▁前期	-10.6631
▁逻辑	-10.6631
▁诸多	-10.6634
▁导航	-10.6636
▁影音	-10.6638
戒	-10.6638
▁百分	-10.6644
▁促销	-10.6649
▁超市	-10.6653
▁男生	-10.6654
▁指示	-10.6654
▁潜	-10.6659
▁芯片	-10.6667
▁无线	-10.6667
鎵	-10.6667
▁行情	-10.6669
▁进程	-10.667
▁失望	-10.6672
▁难得	-10.6673
▁报考	-10.6675
▁j	-10.6677
▁低声	-10.6678
筒	-10.6679
▁假如	-10.6681
湾	-10.6682
▁诞生	-10.6683
▁悲	-10.6684
▁脂肪	-10.6686
▁权力	-10.6686
▁漏	-10.669
▁电梯	-10.669
▁忍	-10.6693
▁濂	-10.6695
▁1314	-10.6701
繁	-10.6704
▁树立	-10.6705
▁客户端	-10.6708
▁一方	-10.6708
▁发起	-10.6709
▁纳	-10.671
▁抚	-10.671
▁研讨	-10.6718
▁不远	-10.6718
扰	-10.6719
on	-10.6722
沉	-10.6724
▁2005	-10.6725
▁按摩	-10.6728
▁协同	-10.6733
▁弘	-10.674
▁地铁	-10.6744
▁总裁	-10.6745
▁辛苦	-10.6745
▁具	-10.6746
▁舰	-10.6749
▁弯	-10.675
▁上半年	-10.6751
▁中國	-10.6753
▁严肃	-10.6754
小说	-10.6755
▁荣誉	-10.6759
▁開	-10.6759
▁免疫	-10.6762
▁架	-10.6762
▁新加坡	-10.6763
▁钻石	-10.6763
▁穿越	-10.6768
▁摄	-10.6769
▁反馈	-10.6774
▁Yb	-10.6776
※	-10.6777
▁长江	-10.678
▁还好	-10.678
▁控	-10.6781
请	-10.6781
▁初步	-10.6783
姓	-10.6785
▁厅	-10.6791
震	-10.6792
點	-10.6792
▁历	-10.6795
▁讲述	-10.6795
▁事务	-10.6801
恶	-10.6803
买	-10.6818
▁遗	-10.6819
▁疑问	-10.682
程序	-10.682
▁定义	-10.6821
引	-10.6822
▁欠	-10.6825
▁热点	-10.6825
▁褐	-10.6828
提高	-10.6832
▁暴力	-10.6834
▁巡	-10.6841
吧	-10.6844
为准	-10.6845
▁地理	-10.6847
▁届	-10.6852
▁依照	-10.6854
▁密切	-10.6858
▁速	-10.686
▁青绿	-10.6864
▁z	-10.6866
▁你好	-10.6866
坛	-10.6867
▁早期	-10.6873
▁煤	-10.6874
以来	-10.6878
國	-10.6878
▁主流	-10.6879
▁思路	-10.6883
▁震	-10.6885
▁城乡	-10.6889
内容	-10.6889
侠	-10.689
▁目	-10.6895
势图	-10.6897
▁输送	-10.6897
▁硬件	-10.6899
▁三天	-10.69
▁椅	-10.6902
▁日起	-10.6903
▁95	-10.6905
▁麻	-10.6912
▁鸿	-10.6916
▁生死	-10.6916
▁侯	-10.6918
▁老子	-10.692
▁加热	-10.6926
▁48	-10.6927
▁只会	-10.6927
▁剂	-10.6927
寸	-10.6928
▁买卖	-10.6934
▁瘦	-10.6937
▁博物馆	-10.694
▁多多	-10.6941
▁此事	-10.6943
一代	-10.6955
▁委	-10.6956
▁备案	-10.696
▁俩	-10.6961
▁讲话	-10.6961
▁休	-10.6963
▁陛	-10.6965
▁山西	-10.6966
决	-10.6969
▁一辆	-10.6972
琪	-10.6974
▁商场	-10.6983
▁借款	-10.6984
動	-10.6996
▁紧急	-10.7011
换	-10.7011
▁→	-10.7013
乳	-10.7014
▁深圳市	-10.7015
阁	-10.7017
鉴	-10.7018
旬	-10.7021
▁防治	-10.7022
▁优良	-10.7023
▁中有	-10.7026
▁and	-10.7028
▁志愿	-10.7032
浆	-10.7036
▁立场	-10.7037
▁金色	-10.7039
锆	-10.7039
▁莫名	-10.7039
▁型号	-10.704
刷	-10.704
▁胎	-10.7042
▁涉嫌	-10.7042
▁美术	-10.7046
▁东莞	-10.7046
長	-10.7046
▁志	-10.705
旭	-10.7051
▁俄	-10.7052
▁交换	-10.7054
▁扩张	-10.7057
▁竞赛	-10.7057
▁污水	-10.7059
▁焦	-10.7059
铺	-10.7061
▁出色	-10.7061
裙	-10.7062
双	-10.7067
壳	-10.7068
▁负担	-10.7069
▁屁股	-10.7069
况	-10.707
鏃	-10.7073
▁花园	-10.7074
▁帐	-10.7074
你	-10.7074
▁不止	-10.7077
▁继	-10.7079
▁联络	-10.7081
▁威力	-10.7083
▁杀人	-10.7086
湪	-10.7087
▁伴	-10.709
▁有潮	-10.709
▁广东省	-10.7093
▁照明	-10.7094
▁驾	-10.7095
▁可怜	-10.7098
毅	-10.7101
▁机遇	-10.7103
▁由此	-10.7108
▁97	-10.7116
▁冷冷	-10.712
▁占据	-10.712
▁窗口	-10.7121
泄	-10.7124
▁旋转	-10.7127
▁49	-10.7134
▁电缆	-10.7136
▁羊	-10.7138
▁五分	-10.7138
▁瓦	-10.7147
▁祝福	-10.7153
▁上前	-10.7156
體	-10.7157
▁甩	-10.7158
▁这份	-10.7158
▁恐惧	-10.7159
▁涨	-10.716
▁离婚	-10.7169
in	-10.7171
▁乃至	-10.7171
▁制造业	-10.7172
▁99	-10.7172
▁事儿	-10.7177
刊	-10.7178
機	-10.718
▁姿	-10.7183
▁巫	-10.7187
▁电视剧	-10.7189
假	-10.719
▁全年	-10.7193
▁后果	-10.7195
▁明年	-10.7201
▁尿	-10.7201
▁电子商务	-10.7205
▁锻炼	-10.7206
▁种子	-10.7207
盈	-10.721
▁激发	-10.7211
▁一头	-10.7215
▁颜	-10.7216
▁有助	-10.7221
爽	-10.7221
▁最多	-10.7222
▁领取	-10.7227
精致	-10.7227
▁处罚	-10.7228
▁目录	-10.7228
累	-10.723
▁院校	-10.723
▁宗教	-10.7233
▁州	-10.7233
▁肺炎	-10.7235
▁图书	-10.7239
▁接待	-10.724
▁耳朵	-10.7244
▁拍卖	-10.7246
他	-10.7247
▁订购	-10.725
▁商城	-10.725
▁从此	-10.7252
▁厦门	-10.7253
萨	-10.7253
▁职务	-10.7255
▁穴	-10.7255
▁企業	-10.7257
▁开户	-10.7258
奥	-10.7259
▁加油	-10.7259
▁招标	-10.7264
▁争取	-10.7265
▁天使	-10.7268
▁修士	-10.7269
▁41	-10.7271
▁障碍	-10.7273
短	-10.7274
涵	-10.7275
之间	-10.7279
▁心头	-10.7279
▁师兄	-10.728
▁电器	-10.728
▁柔	-10.7284
▁吼	-10.7285
▁半天	-10.7287
▁浪漫	-10.7289
▁人文	-10.7294
▁默默	-10.7305
▁分离	-10.7305
▁掏	-10.7313
▁教练	-10.7313
▁绕	-10.7316
▁祭	-10.7317
阅	-10.7318
▁泥	-10.7318
▁民生	-10.7319
▁碰到	-10.732
▁醒	-10.7323
鹰	-10.7331
▁舌	-10.7333
▁稿件	-10.7335
▁预约	-10.7336
▁寺	-10.734
▁颤抖	-10.7341
▁中午	-10.7341
▁慕容	-10.7342
▁签署	-10.7345
▁维生素	-10.7346
▁挥	-10.7346
▁极其	-10.7349
巾	-10.735
▁担当	-10.7352
▁通报	-10.7353
▁强制	-10.7354
狂	-10.7354
争	-10.7355
▁到位	-10.7358
▁公寓	-10.736
▁决	-10.7362
▁购	-10.7369
翔	-10.7377
▁之际	-10.7378
▁新华社	-10.738
▁教材	-10.738
▁汪	-10.7381
▁男孩	-10.7383
▁层次	-10.7384
▁喔	-10.7388
▁激励	-10.7388
▁经销	-10.7389
▁层面	-10.7391
▁萨	-10.7395
▁生日	-10.7395
▁警告	-10.7396
▁社保	-10.7401
▁连锁	-10.7404
▁呼	-10.7404
▁泰国	-10.7405
▁讲解	-10.7409
▁体会	-10.7413
▁西班牙	-10.7413
▁宗旨	-10.7416
▁高压	-10.7422
▁逆	-10.7425
妮	-10.743
蓝	-10.743
▁寰	-10.7436
发展	-10.7436
▁苗	-10.744
區	-10.7442
▁界面	-10.7442
▁到处	-10.7448
斌	-10.7448
▁前方	-10.7449
▁年前	-10.7451
▁即时	-10.7457
▁爱好	-10.7458
▁过后	-10.7462
▁与此同时	-10.7464
▁数据库	-10.7466
▁一代	-10.7466
▁缓解	-10.7471
▁跟踪	-10.7474
▁安心	-10.7481
▁埋	-10.7481
▁当事	-10.7483
穴	-10.7486
郁	-10.7487
▁争议	-10.7489
z	-10.749
▁违规	-10.7494
▁先锋	-10.7496
岭	-10.75
▁多人	-10.7501
▁形态	-10.7504
▁奉	-10.7505
▁任意	-10.7506
▁顾问	-10.751
▁朝鲜	-10.7512
燃	-10.7517
▁止	-10.7518
淡	-10.7519
整	-10.7519
▁地道	-10.752
▁地板	-10.7521
▁高达	-10.7523
疑	-10.7523
邪	-10.7526
▁挖掘	-10.7527
▁个别	-10.7528
▁轴	-10.7531
▁爱心	-10.7535
▁电压	-10.7541
谢	-10.7543
▁突	-10.7544
▁焊接	-10.7547
▁气势	-10.7549
▁短信	-10.755
▁三星	-10.7552
▁肥	-10.7552
▁扫描	-10.7554
痕	-10.7556
▁眼泪	-10.7558
▁通用	-10.7561
▁霸	-10.7568
深处	-10.7573
垫	-10.7577
▁总理	-10.758
▁第七	-10.758
▁12037	-10.7583
惊	-10.7583
▁並	-10.7584
洪	-10.7586
▁作文	-10.7587
▁眉	-10.7594
▁武功	-10.7596
▁卓	-10.7598
▁锦	-10.7602
灰	-10.7604
婚	-10.7605
▁净化	-10.7605
拍	-10.7605
猫	-10.7609
▁得以	-10.761
▁今晚	-10.7614
▁没错	-10.7618
▁蛮	-10.7619
▁率先	-10.7625
齿	-10.7625
▁句	-10.7625
韵	-10.7627
▁仅供	-10.7628
▁遭到	-10.7628
▁发票	-10.7632
与	-10.7634
▁當	-10.7635
▁投标	-10.7635
▁火箭	-10.7638
▁鉴定	-10.7641
▁大战	-10.7641
沟	-10.7641
不同	-10.7642
▁包裹	-10.7651
▁过滤	-10.7654
▁敲	-10.7655
代表	-10.7657
▁动漫	-10.7658
庙	-10.7658
▁89	-10.7661
▁一向	-10.7661
▁继承	-10.7664
▁拉开	-10.7674
坐下	-10.7676
▁华夏	-10.7676
▁电信	-10.7677
▁肺	-10.7679
隐	-10.7691
▁震惊	-10.7694
▁欢乐	-10.7695
▁西北	-10.7696
▁高于	-10.7698
▁券	-10.7699
▁庆	-10.7699
▁后续	-10.7703
▁前进	-10.7705
〕	-10.7717
▁外部	-10.7719
视频	-10.772
▁开幕	-10.7722
▁远程	-10.7724
▁原始	-10.7726
▁起点	-10.7727
▁后悔	-10.7729
▁纪录	-10.773
▁这般	-10.7733
▁吻	-10.7734
▁传感器	-10.7734
▁黎	-10.7736
▁地产	-10.7737
▁公安	-10.7738
▁粮食	-10.7742
▁800	-10.7742
▁皇后	-10.7745
▁正面	-10.7745
▁消化	-10.7748
雾	-10.775
科大	-10.7751
▁壹	-10.7753
▁焦点	-10.7755
不见	-10.7756
▁走过	-10.7759
▁演	-10.776
▁啪	-10.7761
▁發	-10.7761
▁聚焦	-10.7765
▁客厅	-10.7766
▁面色	-10.7767
▁运转	-10.7769
途	-10.7772
▁披露	-10.7773
▁相似	-10.7776
婷	-10.7777
▁团结	-10.778
▁豪华	-10.7782
▁唉	-10.7783
▁从小	-10.7784
▁精英	-10.7791
毁	-10.7793
88	-10.7795
▁鲜血	-10.7795
▁女孩子	-10.7801
稳	-10.7804
▁桌子	-10.7807
汁	-10.7807
▁多数	-10.7809
丈	-10.781
▁度假	-10.7812
▁种种	-10.7818
▁单纯	-10.782
J	-10.7822
鐪	-10.7827
▁應	-10.7829
等奖	-10.783
席	-10.7832
▁北方	-10.7835
▁延伸	-10.7837
▁Tm	-10.7839
▁诉讼	-10.7839
拜	-10.7845
▁虫	-10.7846
▁早餐	-10.7849
▁排除	-10.785
▁59	-10.7853
▁退休	-10.7854
▁几十	-10.7854
▁44	-10.7858
▁采集	-10.786
▁债务	-10.7861
▁新兴	-10.7862
▁客气	-10.7864
敢	-10.7864
▁提起	-10.7865
▁满脸	-10.7866
冠	-10.7868
▁次数	-10.7869
▁一一	-10.7871
▁平常	-10.7873
▁过于	-10.7874
▁延	-10.7875
▁主力	-10.7875
▁接口	-10.7878
▁胖子	-10.7879
▁口碑	-10.7879
谅	-10.788
▁沒	-10.7881
阴	-10.7882
▁桑	-10.7883
略	-10.7884
▁民营	-10.7886
劫	-10.7887
劳	-10.7891
▁落下	-10.7892
▁回报	-10.7893
▁壮	-10.7895
▁静静	-10.7896
▁转向	-10.7901
▁垫	-10.7906
▁二次	-10.7912
▁中年	-10.7912
▁外界	-10.7912
▁借助	-10.7914
▁也就是	-10.7919
▁招商	-10.7919
▁污	-10.7933
▁得意	-10.7934
仓	-10.7936
城市	-10.7938
玛	-10.7939
▁省委	-10.7941
▁头上	-10.7941
▁少数	-10.7942
▁典	-10.7943
▁非洲	-10.7947
▁白癜风	-10.7947
▁伙伴	-10.795
▁镜头	-10.7951
▁日益	-10.7951
▁低价	-10.7951
▁延续	-10.7951
▁进度	-10.7954
▁加以	-10.7956
▁首席	-10.7956
▁安慰	-10.7957
▁客观	-10.7959
▁味	-10.7961
▁讯	-10.7962
▁战胜	-10.7964
▁统筹	-10.7964
▁绑	-10.7964
▁AI	-10.7965
▁奶奶	-10.7966
▁截止	-10.7966
▁皱眉	-10.7969
▁發展	-10.797
▁指南	-10.7974
▁挤	-10.7974
▁陕西	-10.7976
▁晕	-10.7977
▁框架	-10.7978
婉	-10.7978
▁2004	-10.7979
▁产量	-10.7979
▁薪资	-10.7986
家中	-10.7986
▁2003	-10.7988
爹	-10.799
▁邮	-10.7993
▁寻求	-10.7993
▁杀死	-10.7995
舟	-10.7996
▁然	-10.7997
独	-10.7998
▁西南	-10.7998
▁360	-10.8001
佸	-10.8001
▁闻言	-10.8002
▁钢铁	-10.8003
▁心脏	-10.8003
▁洋	-10.8004
▁窗	-10.8007
▁高峰	-10.8011
▁携带	-10.8016
▁98	-10.8016
▁氢氧化	-10.8022
▁一顿	-10.8024
▁产能	-10.8024
▁坑	-10.8025
规	-10.8025
▁当代	-10.8026
▁三是	-10.8029
▁13450	-10.8035
▁漫画	-10.8043
▁防火	-10.8045
▁侵害	-10.8046
▁煎	-10.8048
▁摇摇	-10.8049
▁不愿	-10.8052
▁损坏	-10.8053
桶	-10.8053
▁子女	-10.8054
▁水晶	-10.8054
▁神奇	-10.8057
▁剪	-10.8057
▁生成	-10.8058
▁守护	-10.8059
▁酷	-10.8059
▁珠	-10.806
▁真空	-10.806
兆	-10.806
場	-10.8062
箭	-10.807
贝	-10.8073
▁济南	-10.8074
▁永久	-10.8077
枝	-10.8078
玩	-10.808
精神	-10.8082
▁陌生	-10.8083
▁演讲	-10.8086
祸	-10.8087
▁停下	-10.8087
▁一辈子	-10.8092
▁毁	-10.8092
▁编制	-10.8096
▁事物	-10.8099
珍	-10.8101
▁自家	-10.8103
▁磁	-10.8104
▁進行	-10.8106
▁许可	-10.8111
融	-10.8122
灾	-10.8124
▁试图	-10.8125
▁劈	-10.8126
▁授	-10.8128
▁62	-10.8132
▁观念	-10.8133
▁保温	-10.8134
▁豪	-10.8134
▁携手	-10.8135
▁公务员	-10.8136
▁太过	-10.8138
▁荒	-10.814
栏	-10.8143
▁纽约	-10.8145
▁涌	-10.815
▁裙	-10.8157
谋	-10.8157
▁助理	-10.816
▁妇女	-10.816
▁垂	-10.8161
▁发射	-10.8162
亭	-10.8162
▁Ho	-10.8163
▁尼	-10.8165
▁技	-10.8166
▁国民	-10.8168
熙	-10.8169
▁活跃	-10.8169
哈	-10.8169
汽车	-10.817
▁锆	-10.8172
▁偶尔	-10.8175
▁长安	-10.8176
▁大事	-10.8179
颗	-10.818
▁审计	-10.8181
▁无关	-10.8184
▁纹	-10.8186
▁丑	-10.8186
▁www	-10.8187
漏	-10.8187
▁人间	-10.8187
湁	-10.8193
將	-10.8198
▁来得	-10.8202
▁老夫	-10.8204
几	-10.8208
▁uu	-10.8209
袭	-10.821
▁季节	-10.8212
▁储存	-10.8213
▁改革开放	-10.8213
▁柯	-10.8214
▁呵	-10.8216
腰	-10.8221
▁途径	-10.8222
▁样	-10.8229
▁救援	-10.8235
▁西部	-10.8236
▁牙	-10.8236
▁幼	-10.8238
欧	-10.824
▁妹	-10.8245
懂	-10.8246
帽	-10.8247
▁发明	-10.8247
炼	-10.8252
▁虚空	-10.8253
壮	-10.8255
▁迪	-10.8256
▁动画	-10.8257
▁饭店	-10.8257
▁活着	-10.8258
▁一点点	-10.8261
▁冥	-10.8263
▁学者	-10.8264
▁脑海	-10.8272
薇	-10.8276
▁侍	-10.828
▁乃是	-10.828
▁百年	-10.8281
▁姓	-10.8281
▁质优	-10.8286
▁土壤	-10.8286
▁赋	-10.8286
▁纸板桶	-10.8287
▁对接	-10.829
▁最强	-10.8291
昊	-10.8293
▁鼻子	-10.8294
陆续	-10.8295
▁本质	-10.8297
▁以此	-10.8298
▁竞	-10.8301
▁两大	-10.8301
▁旋	-10.8301
嶅	-10.8303
▁人大	-10.8303
▁抛光	-10.8305
▁江南	-10.8311
社会	-10.8311
偏	-10.8312
▁烘	-10.8312
▁发动	-10.8316
漆	-10.8317
▁一瞬间	-10.8318
▁大脑	-10.8319
▁朕	-10.8319
紫	-10.8321
▁股市	-10.8322
堡	-10.8324
▁错过	-10.8327
▁若干	-10.8327
▁行驶	-10.8332
▁晒	-10.8332
▁内地	-10.8333
▁夸	-10.8334
▁未能	-10.8334
▁姬	-10.8335
渊	-10.834
▁在家	-10.834
▁冒险	-10.8342
▁同行	-10.8344
▁变形	-10.8347
哲	-10.8348
▁单元	-10.8349
▁工商	-10.8349
▁试试	-10.8357
逝	-10.8357
▁篮球	-10.836
▁设有	-10.8361
▁受理	-10.8366
▁过度	-10.8368
▁婚礼	-10.8369
莱	-10.8371
▁这点	-10.8371
旺	-10.8381
暖	-10.8384
▁可不	-10.8388
▁捧	-10.8389
▁IT	-10.839
▁参赛	-10.8392
盆	-10.8392
▁谨慎	-10.8394
鍗	-10.8394
▁碳	-10.8395
▁旨	-10.8397
▁博客	-10.8398
車	-10.8398
▁逐	-10.8398
▁途	-10.8401
▁矿	-10.8404
零	-10.8404
▁精力	-10.8404
▁人气	-10.8409
▁海军	-10.8409
胎	-10.8409
▁中国共产党	-10.841
框	-10.8411
▁租	-10.8415
▁宁波	-10.8415
含	-10.8416
▁倾	-10.8416
▁团购	-10.8417
▁引入	-10.8419
▁旺	-10.8421
▁服饰	-10.8421
鍑	-10.8422
▁韦	-10.8423
▁商量	-10.8424
▁办学	-10.8432
▁谭	-10.8435
▁郡	-10.8437
▁重重	-10.844
▁伏	-10.8441
塘	-10.8442
▁惊人	-10.8442
▁形状	-10.8443
▁首都	-10.8446
▁氨	-10.845
▁cn	-10.8456
▁炮	-10.8462
▁川	-10.8464
▁掩	-10.8471
部分	-10.8472
障	-10.8474
▁手表	-10.8476
▁色情	-10.8476
据	-10.8478
岳	-10.848
▁聊	-10.848
▁合作伙伴	-10.8481
▁82	-10.8482
▁大规模	-10.8489
▁境内	-10.849
羊	-10.8491
▁欢	-10.8494
▁扩展	-10.8494
▁暂停	-10.8496
▁享	-10.8498
▁股价	-10.8498
過	-10.8498
勤	-10.85
知识	-10.85
▁数十	-10.8502
▁个体	-10.8503
岗	-10.8505
▁膜	-10.8505
▁防范	-10.8511
▁咱	-10.8512
▁养生	-10.8513
▁二级	-10.8513
▁认知	-10.8514
▁Sc	-10.8523
济	-10.8529
▁碧	-10.8529
▁写作	-10.8533
▁举措	-10.8535
▁缺少	-10.8539
腹	-10.8541
▁暴露	-10.8542
保险	-10.8543
▁眼看	-10.8543
▁悬	-10.8544
▁棕	-10.8547
铭	-10.8547
▁下方	-10.8549
▁滴	-10.8549
▁52	-10.8555
平方米	-10.8557
漠	-10.856
▁袋	-10.8564
▁便捷	-10.8568
伊	-10.8571
▁卫星	-10.8571
20	-10.8572
▁顺丰	-10.8574
仗	-10.8575
宴	-10.8578
▁吾	-10.8585
染	-10.859
▁睡眠	-10.8593
喝	-10.8593
▁疫	-10.8594
▁澳大利亚	-10.8595
▁面议	-10.8596
▁消毒	-10.8596
▁必定	-10.8596
▁主持人	-10.8597
▁平稳	-10.8598
▁普及	-10.8598
奔	-10.8602
民警	-10.8602
▁发达	-10.8604
▁慕	-10.8606
▁涉	-10.8612
▁AR	-10.8613
▁大地	-10.8616
▁81	-10.8618
▁不已	-10.8619
▁急忙	-10.8619
▁欧盟	-10.8621
▁久久	-10.8626
▁硬质	-10.8631
▁功率	-10.8631
▁书面	-10.8633
延	-10.8634
结构	-10.8638
▁冬季	-10.8638
▁快捷	-10.864
协会	-10.8644
▁想来	-10.8647
▁攀	-10.8652
▁边缘	-10.8652
尚	-10.8653
萍	-10.8655
▁两只	-10.866
▁唔	-10.8661
▁邮件	-10.8662
▁一幕	-10.8663
麻	-10.8673
数据	-10.8677
▁话语	-10.8678
▁宠	-10.8686
颖	-10.8692
▁针	-10.8693
▁42	-10.8693
▁法定	-10.8694
▁阿里	-10.8696
▁立法	-10.8697
▁灯光	-10.8697
▁热水	-10.8697
▁投票	-10.8698
▁淫	-10.8699
▁退款	-10.8705
▁运费	-10.8706
▁三十	-10.871
▁充足	-10.8711
▁偷偷	-10.8713
应用	-10.8713
▁液	-10.8714
姑娘	-10.8714
▁万辆	-10.8716
▁奖金	-10.8721
耗	-10.8723
▁第二次	-10.8725
諲	-10.8727
刺	-10.8731
贼	-10.8733
▁沈阳	-10.8734
▁紧密	-10.8735
岀	-10.8735
▁歌曲	-10.8739
▁秉	-10.8742
▁乳房	-10.8743
▁探讨	-10.8743
▁妙	-10.8744
▁拔	-10.8748
▁某种	-10.8751
▁悄悄	-10.8752
▁这部	-10.8754
订	-10.8756
氢	-10.8757
▁多样	-10.8759
盟	-10.8761
▁开车	-10.8761
▁替代	-10.8763
▁劳	-10.8764
规定	-10.8764
▁隔离	-10.8765
▁王爷	-10.8765
網	-10.877
▁套装	-10.8772
▁期望	-10.8774
▁初期	-10.8775
▁醉	-10.8775
▁电流	-10.8779
▁己	-10.8779
▁愉	-10.878
▁形容	-10.8793
▁电气	-10.8797
勉强	-10.8797
▁施展	-10.8798
▁开拓	-10.8798
▁哲学	-10.88
绿	-10.8802
▁冲突	-10.8804
▁俊	-10.881
固	-10.881
▁体检	-10.8811
▁收回	-10.8811
轨	-10.8811
▁周末	-10.8812
▁裴	-10.8813
▁中介	-10.8816
▁白天	-10.8822
▁泛	-10.8823
▁不易	-10.8823
▁真相	-10.8831
芒	-10.8832
▁文艺	-10.8837
▁看法	-10.8838
▁主导	-10.8841
▁一台	-10.8842
亩	-10.8842
▁协商	-10.8842
▁尹	-10.8845
塑	-10.8846
▁分子	-10.8851
▁隐隐	-10.8851
▁宛	-10.8853
▁图像	-10.8854
▁伸	-10.8857
仲	-10.8857
▁优雅	-10.8857
▁54	-10.8858
▁上门	-10.8861
▁水分	-10.8861
▁疾	-10.8865
▁频率	-10.8866
▁入住	-10.8869
▁高层	-10.887
▁太多	-10.8872
俗	-10.8873
▁纤维	-10.8875
▁礼品	-10.8876
创新	-10.8879
单位	-10.8882
▁记载	-10.8884
▁仇	-10.8885
▁享有	-10.8886
不及	-10.8887
▁好不好	-10.8887
姝	-10.889
▁债券	-10.8892
▁宿舍	-10.8892
▁66	-10.89
▁公示	-10.8903
▁嫌	-10.8906
▁录	-10.8907
▁伤口	-10.8907
▁员	-10.8907
桃	-10.8907
▁上海市	-10.8907
▁皱	-10.8913
▁巴黎	-10.8914
▁雄	-10.8917
建设	-10.8917
▁65	-10.8921
▁会上	-10.8922
报道	-10.8923
▁舔	-10.8923
▁课题	-10.8924
够	-10.8928
咐	-10.8928
▁迟	-10.8934
▁产品质量	-10.8936
▁柔软	-10.8937
▁节奏	-10.8943
净	-10.8946
學	-10.8947
▁占地	-10.8947
▁医师	-10.8951
缴	-10.8951
▁沾	-10.8951
▁导向	-10.8954
▁成效	-10.8965
▁弹性	-10.897
▁速快	-10.8977
▁不论	-10.8983
嫩	-10.8984
17	-10.8986
▁越南	-10.8992
爸	-10.8995
▁汗	-10.8997
▁处分	-10.8998
▁物资	-10.8998
▁堵	-10.9004
▁力气	-10.9004
▁莱	-10.9007
▁体制	-10.9008
▁对抗	-10.901
▁大连	-10.9012
▁卓越	-10.9013
▁蛋糕	-10.9015
▁从业	-10.9016
▁摘	-10.9017
▁局部	-10.9019
▁模具	-10.902
▁败	-10.9024
开发	-10.9024
▁羽	-10.9025
成本	-10.9026
醉	-10.9026
▁家电	-10.903
蒙	-10.903
颊	-10.9031
文化	-10.9035
▁柜	-10.9035
▁预订	-10.9041
▁可用	-10.9044
▁冬天	-10.9046
薪	-10.9047
自治区	-10.9048
▁天堂	-10.9048
▁谈判	-10.9052
▁幻	-10.9054
▁眼光	-10.9061
▁辨	-10.9062
容易	-10.9063
▁关联	-10.9064
一体化	-10.9068
▁墓	-10.907
▁豆	-10.9071
▁董事	-10.9071
▁一百	-10.9073
▁舞蹈	-10.9077
悍	-10.9078
▁放入	-10.9079
汇	-10.908
▁遍	-10.9081
减	-10.9082
律	-10.9084
肠	-10.9088
▁着力	-10.909
▁别说	-10.9091
▁热爱	-10.9093
▁热闹	-10.9093
▁格式	-10.9097
龄	-10.9097
▁有用	-10.9098
▁谱	-10.9098
▁章节	-10.9098
鼓	-10.91
▁一夜	-10.9101
▁税务	-10.9102
粮	-10.9108
▁停留	-10.911
亾	-10.911
育	-10.9113
▁登入	-10.9114
▁选举	-10.9115
▁吩	-10.9116
▁门外	-10.9116
▁笔记本	-10.9117
缝	-10.912
▁出租	-10.9121
▁吵	-10.9122
▁冷静	-10.9124
▁等于	-10.9129
▁走上	-10.9129
▁局长	-10.9135
▁美的	-10.9136
▁身心	-10.9139
菌	-10.9142
▁饿	-10.9145
▁法治	-10.9146
困	-10.9147
▁摘要	-10.9147
戴	-10.9147
污	-10.9148
党中央	-10.9149
企	-10.9156
▁液压	-10.9158
▁有钱	-10.9158
▁艰难	-10.916
▁PK	-10.916
▁心想	-10.9161
奶	-10.9164
闭	-10.9166
▁三级	-10.9174
豆	-10.9177
▁人力	-10.9183
▁初中	-10.9186
▁弥	-10.9186
▁闯	-10.9192
▁瓷	-10.9193
▁侵权	-10.9193
▁澄清	-10.9193
▁党建	-10.9193
▁研制	-10.9196
▁补助	-10.9199
▁习	-10.9199
▁响应	-10.9202
▁用心	-10.9203
鸿	-10.9205
▁这座	-10.9205
un	-10.9213
际	-10.9215
▁反弹	-10.9216
▁伯	-10.9218
▁沐	-10.9218
模式	-10.9222
▁猛然	-10.9225
▁沪	-10.9225
▁效应	-10.9225
▁尔	-10.923
▁样品	-10.9232
▁副本	-10.9245
▁语音	-10.9247
▁东京	-10.9247
▁赏	-10.9248
▁滤	-10.9249
▁翠	-10.925
▁88	-10.9251
▁质疑	-10.9251
▁屋子	-10.9252
▁情报	-10.9256
出去	-10.9259
姿	-10.9264
▁寸	-10.9265
▁导师	-10.9268
▁饮料	-10.9268
▁閬	-10.927
▁丧	-10.9273
▁京津	-10.9275
▁鸡蛋	-10.9277
署	-10.9278
▁泵	-10.9278
▁夏季	-10.9279
▁现状	-10.928
12	-10.928
▁离去	-10.9283
▁协作	-10.9285
▁信赖	-10.9286
▁新手	-10.9286
一下	-10.9289
榜	-10.9289
厂家	-10.929
规划	-10.9291
▁无力	-10.9291
▁阮	-10.9294
▁不变	-10.9296
▁遂	-10.9299
篘	-10.93
手机	-10.93
题目	-10.9306
▁左手	-10.9307
▁螺	-10.9312
▁按钮	-10.9312
▁祖	-10.9313
▁手游	-10.9326
▁环球	-10.9327
施	-10.9332
▁問題	-10.9339
▁西藏	-10.9339
▁棉	-10.934
▁總	-10.9341
▁av	-10.9342
en	-10.9346
▁声道	-10.9354
消息	-10.9355
▁节省	-10.9357
▁拼命	-10.9357
欢迎	-10.9358
▁握	-10.9358
▁有序	-10.9359
学校	-10.9364
▁新冠	-10.9369
▁险	-10.9375
▁检	-10.9377
鼎	-10.9378
線	-10.938
▁孕妇	-10.9381
▁两岸	-10.9381
▁內容	-10.9383
兹	-10.9385
▁算了	-10.9391
▁脑子	-10.9391
▁举动	-10.9397
▁一日	-10.9397
▁短短	-10.94
▁资	-10.94
▁只怕	-10.9409
▁邵	-10.941
严	-10.9414
▁撑	-10.9415
怡	-10.9424
▁性感	-10.9428
▁看好	-10.9434
至于	-10.9436
百姓	-10.9438
▁胖	-10.9441
▁手法	-10.9443
▁自行车	-10.9445
▁灌	-10.9445
猪	-10.9446
▁披	-10.9448
▁一抹	-10.9448
轴	-10.9449
享	-10.9451
婴	-10.9451
▁震撼	-10.9451
▁摩	-10.9454
▁气候	-10.9455
休	-10.9455
▁场地	-10.9458
▁感应	-10.9459
▁传媒	-10.9465
效率	-10.9468
▁影院	-10.9468
▁签证	-10.9469
▁小镇	-10.947
▁游泳	-10.9478
▁抑制	-10.948
▁to	-10.9481
▁讨厌	-10.9482
頭	-10.9484
▁发电	-10.9495
重视	-10.9496
磊	-10.9501
骂	-10.9503
▁相反	-10.9504
▁轻声	-10.9506
▁打量	-10.9507
▁新浪	-10.9508
▁合成	-10.9516
▁外挂	-10.9516
▁仓库	-10.9517
96	-10.9517
▁南宫	-10.9518
▁修行	-10.952
▁出于	-10.952
▁2002	-10.9521
条件	-10.9523
▁高等	-10.9527
▁景观	-10.9533
▁效益	-10.9533
号码	-10.9536
鑫	-10.9539
弄	-10.9539
▁要么	-10.9543
▁神通	-10.9545
▁图书馆	-10.9548
▁人事	-10.955
▁法令	-10.9556
魄	-10.9558
▁臣	-10.9565
▁不在	-10.9569
▁解除	-10.9571
▁向上	-10.9572
▁淡紫	-10.9573
▁几句	-10.9574
▁百万	-10.9577
▁健	-10.9579
▁农产品	-10.958
▁美味	-10.9581
▁晶	-10.9584
▁数码	-10.9585
▁支援	-10.9588
▁正当	-10.9589
▁哀	-10.959
趟	-10.9591
▁纪律	-10.9598
▁渔	-10.96
▁而后	-10.9602
▁变革	-10.9603
符	-10.9603
▁作家	-10.9604
身为	-10.9608
▁巡视	-10.9608
▁立足	-10.9609
▁干脆	-10.961
▁少爷	-10.961
▁全民	-10.9614
▁宏	-10.9614
▁编织	-10.962
▁感兴趣	-10.962
▁旗舰	-10.962
▁砂	-10.9621
▁境外	-10.9622
▁态	-10.9624
▁混乱	-10.9627
▁纠纷	-10.9627
▁遗憾	-10.9627
日起	-10.9628
来说	-10.9628
反	-10.9634
▁肌	-10.9636
继	-10.9638
细胞	-10.9638
▁荣获	-10.9639
▁淘汰	-10.9641
▁五十	-10.9644
▁笑意	-10.9646
罐	-10.965
暴	-10.965
現	-10.9655
美元	-10.9655
围	-10.9657
▁党组	-10.9659
勬	-10.9659
▁不利	-10.9664
▁轨道	-10.9664
集团	-10.9665
▁结算	-10.9666
发挥	-10.9668
▁重组	-10.967
▁信仰	-10.9672
▁瀛	-10.9674
▁影像	-10.9674
▁硅	-10.9675
▁置	-10.9677
▁日后	-10.9678
▁冷却	-10.9679
法规	-10.968
▁臭	-10.9683
▁第八	-10.9684
▁新生	-10.9687
▁巴西	-10.9687
▁高雄	-10.9699
损	-10.9701
▁真心	-10.9708
宅	-10.9709
▁主角	-10.971
愁	-10.971
▁碗	-10.9712
▁春天	-10.9713
▁跺	-10.9715
▁批评	-10.9716
贴	-10.9719
▁决心	-10.9725
▁浪	-10.9726
▁藉	-10.9727
▁验收	-10.9728
恋	-10.9729
▁氣	-10.973
U	-10.9731
跑	-10.9731
▁上课	-10.9731
▁姐	-10.9733
亏	-10.9738
▁解放	-10.9739
▁评审	-10.975
▁時間	-10.975
寿	-10.9751
▁赞	-10.9758
阶段	-10.9762
▁64	-10.9762
▁审	-10.9763
▁手工	-10.9763
▁狠	-10.9767
▁2001	-10.9768
情况	-10.9775
▁巅峰	-10.9776
烦	-10.9776
▁有意	-10.9779
▁详	-10.9781
▁多项	-10.9783
▁嘴巴	-10.9783
▁切割	-10.9783
▁单斜	-10.9785
▁潜力	-10.9786
▁合并	-10.9787
▁驱	-10.9789
▁角落	-10.9791
▁不由得	-10.9793
▁济宁	-10.9799
▁還	-10.9799
▁售	-10.9799
▁上帝	-10.9802
▁诡异	-10.9803
▁涵盖	-10.9804
Z	-10.9806
讲	-10.9808
▁矣	-10.9811
运动	-10.9812
▁大军	-10.9813
▁亲爱	-10.9815
們	-10.9817
▁全场	-10.9818
▁凌晨	-10.9819
▁粘	-10.9821
14	-10.9821
▁邮箱	-10.9823
▁压缩	-10.9824
▁拍照	-10.983
▁天才	-10.9832
▁海上	-10.9839
谱	-10.984
▁开来	-10.984
▁十足	-10.9843
▁姐妹	-10.9843
亦	-10.9843
展出	-10.9844
▁遮	-10.9852
▁放到	-10.9854
▁差别	-10.9855
▁书籍	-10.9855
▁地域	-10.9856
▁减轻	-10.986
▁外交	-10.9863
铃	-10.987
▁365	-10.9872
▁口味	-10.9872
個	-10.9874
▁承包	-10.9874
柏	-10.9874
▁要素	-10.9876
范	-10.9876
業	-10.9876
▁师生	-10.9877
▁搅拌	-10.9878
▁女神	-10.988
▁象征	-10.988
▁马车	-10.9881
▁娶	-10.9885
▁察觉	-10.9896
▁跟随	-10.9897
▁仁	-10.9897
▁热血	-10.9899
▁眼镜	-10.9901
▁迎接	-10.9902
▁清醒	-10.9903
▁岁月	-10.9905
▁長	-10.9909
▁摩擦	-10.9912
◆	-10.9916
▁85	-10.9916
▁原油	-10.9917
▁依赖	-10.9917
男	-10.9919
▁新人	-10.9919
昂	-10.9919
▁菲	-10.992
国家	-10.9921
寨	-10.9922
▁一圈	-10.9926
消	-10.993
▁深受	-10.9932
冰冷	-10.9933
▁发育	-10.9937
▁94	-10.9938
▁转头	-10.994
▁符	-10.9941
▁乘客	-10.9942
▁解析	-10.9947
▁杀手	-10.9949
▁平面	-10.9952
扶	-10.9953
▁回过	-10.9954
▁一两	-10.9955
伴	-10.9958
▁俱	-10.9959
▁节日	-10.9961
煤	-10.9966
▁考验	-10.9967
▁武林	-10.9967
刃	-10.9968
▁认同	-10.9968
▁真诚	-10.9976
▁遭受	-10.9981
▁健全	-10.9983
悟	-10.9989
价廉	-10.9991
岚	-10.9994
or	-10.9997
▁機	-10.9997
▁吞	-10.9998
▁橡胶	-10.9998
▁相处	-11
停	-11.0001
交通	-11.0003
▁干扰	-11.0005
▁杰	-11.0007
▁行李	-11.001
肿	-11.001
▁兩	-11.0012
▁押	-11.0012
▁注意事	-11.0014
▁香蕉	-11.0014
▁PC	-11.0015
▁监察	-11.002
胆	-11.0022
▁精华	-11.0023
▁释	-11.0025
▁設計	-11.0025
终	-11.0031
统	-11.0034
粹	-11.0036
▁伊朗	-11.0036
▁友好	-11.0037
▁建材	-11.0038
▁终止	-11.0041
▁井	-11.0042
▁搂	-11.0048
▁穷	-11.0051
▁见证	-11.0053
▁耳边	-11.0055
▁第二个	-11.0059
▁头顶	-11.006
▁Eu	-11.0061
日报	-11.0064
▁立体	-11.0065
▁合肥	-11.0067
▁万一	-11.0071
▁羞	-11.0072
▁图案	-11.0073
▁内涵	-11.0073
研	-11.0074
▁流通	-11.0074
▁概率	-11.0075
▁分散	-11.0075
售价	-11.0076
▁醒来	-11.0076
▁玉米	-11.008
▁给出	-11.009
▁學	-11.0091
▁茶叶	-11.0094
▁振兴	-11.0098
役	-11.0099
▁祖国	-11.01
骑	-11.0103
▁阴阳	-11.0109
▁报纸	-11.011
▁讯息	-11.0112
▁邱	-11.0114
▁长度	-11.0115
▁禅	-11.0115
▁放置	-11.012
▁演唱	-11.0122
▁不宜	-11.0127
▁服用	-11.0128
寮	-11.0128
▁辉煌	-11.0133
▁所属	-11.0136
▁埃	-11.0139
▁车间	-11.014
38245	-11.0142
▁阐	-11.0142
▁留意	-11.0143
▁创始人	-11.0145
▁实质	-11.0146
▁科学家	-11.0151
束	-11.0151
▁漆	-11.0151
▁轩辕	-11.0152
▁地狱	-11.0155
▁决赛	-11.016
▁轴承	-11.0161
▁模糊	-11.0167
▁情人	-11.0167
▁座谈	-11.0168
▁棒	-11.0169
▁之色	-11.017
▁着急	-11.017
▁厘米	-11.017
▁昆明	-11.0174
氣	-11.0174
▁曼	-11.0177
▁本土	-11.0178
▁病情	-11.018
犬	-11.018
▁46	-11.0184
▁阴道	-11.0185
▁保安	-11.0189
▁圆满	-11.0191
有限责任	-11.0192
▁昨晚	-11.0193
▁竞技	-11.0195
▁续	-11.0198
▁诱	-11.02
▁恋爱	-11.0201
▁外汇	-11.0205
捷	-11.0205
知道	-11.0209
▁未必	-11.0211
▁场面	-11.0213
品牌	-11.0215
▁晴	-11.0217
▁遵循	-11.0217
▁富有	-11.022
禁	-11.0222
▁同期	-11.0223
▁缘	-11.0224
▁意志	-11.0226
▁固	-11.0227
▁帖	-11.0231
ar	-11.024
范围	-11.0253
▁庆祝	-11.0253
▁猜测	-11.0253
▁丽	-11.0257
▁缓慢	-11.0258
▁放开	-11.0258
▁缴纳	-11.026
▁时机	-11.026
来讲	-11.026
▁城镇	-11.0262
▁粉碎	-11.027
扎实	-11.027
▁揭露	-11.027
▁此人	-11.0274
债	-11.0274
▁说不出	-11.0277
▁文物	-11.0278
▁名为	-11.0281
▁诈骗	-11.0281
▁天然气	-11.0285
▁寿命	-11.0285
▁分数	-11.0287
蕾	-11.0289
▁科学技术	-11.0289
▁雾	-11.029
▁两者	-11.0293
▁四年	-11.0297
协	-11.0299
▁王者	-11.03
下列	-11.0301
输	-11.0305
志愿者	-11.0305
▁连连	-11.0315
▁玫瑰	-11.0315
▁丫头	-11.0316
▁友	-11.0316
▁大片	-11.0322
莹	-11.0325
▁大胆	-11.0326
▁美观	-11.0328
▁豹子	-11.033
衫	-11.0332
▁缺陷	-11.0332
▁新品	-11.0335
▁平等	-11.0335
▁中山	-11.0337
租	-11.0338
▁颈	-11.0338
▁五大	-11.034
傛	-11.0342
▁数百	-11.0345
▁大于	-11.0346
▁没人	-11.0348
▁附件	-11.0352
哭	-11.0356
▁赠送	-11.0356
浼	-11.0358
▁独家	-11.0361
▁水合物	-11.0361
▁算法	-11.0361
▁資料	-11.0367
坡	-11.0368
▁精密	-11.0369
▁退换	-11.0369
翻	-11.037
▁辽宁	-11.0375
▁帅	-11.0376
▁概	-11.0384
▁水中	-11.0387
▁牺牲	-11.0389
▁工会	-11.0389
吻	-11.0389
▁放大	-11.0398
▁今夜	-11.0398
▁渴望	-11.0399
▁汇报	-11.0406
▁党组织	-11.041
番	-11.0414
▁段时间	-11.0418
▁蹇	-11.0418
▁规矩	-11.0421
▁常规	-11.0421
▁葡萄	-11.0422
▁谋	-11.0425
▁一站	-11.0427
▁肯	-11.0428
▁全是	-11.0429
電	-11.0431
匹	-11.0433
▁理性	-11.0433
▁新建	-11.0438
▁充值	-11.0438
▁拿下	-11.0441
▁前景	-11.0442
▁每周	-11.0442
驻	-11.0446
▁尸	-11.0448
▁几位	-11.0448
▁手掌	-11.0452
撞	-11.0454
▁一时间	-11.0455
雯	-11.0455
▁43	-11.0457
▁强势	-11.0457
鼠	-11.0461
▁踏	-11.0462
▁因為	-11.0463
▁电子邮件	-11.0466
▁和尚	-11.0468
▁炉	-11.047
▁好玩	-11.0471
▁盟	-11.0475
綘	-11.0476
▁制品	-11.0477
▁经济社会	-11.0481
辆	-11.0481
▁随机	-11.0483
▁一闪	-11.0485
饼	-11.0486
迫	-11.0488
▁稿	-11.049
閲	-11.0495
▁涨幅	-11.0496
苑	-11.0497
▁山东省	-11.0498
脂	-11.05
▁1500	-11.0503
缩	-11.0509
▁新年	-11.051
▁公积	-11.0511
▁适宜	-11.0512
▁一次性	-11.0512
▁钥匙	-11.0512
▁方针	-11.0513
分之一	-11.0517
▁获悉	-11.0517
▁美人	-11.0518
▁介	-11.0521
▁勿	-11.0522
罚	-11.0523
芯	-11.0523
▁言论	-11.0523
▁追究	-11.0524
姬	-11.0529
▁剧烈	-11.0532
▁传出	-11.0532
▁央行	-11.0533
高新技术	-11.0533
▁昏	-11.0534
▁性别	-11.0535
▁摊	-11.0535
▁眨	-11.0536
▁牙齿	-11.0536
▁珠宝	-11.0539
▁后退	-11.0541
▁人均	-11.0544
▁產品	-11.0544
▁煞	-11.0545
贷	-11.0547
▁模板	-11.0548
▁管家	-11.0554
▁一笔	-11.0558
▁新区	-11.0562
▁繁	-11.0562
▁评选	-11.0564
▁燃	-11.0565
▁何时	-11.0568
▁架构	-11.057
▁纳税	-11.0574
▁恶魔	-11.0575
▁这款	-11.0575
▁蹲	-11.0579
▁锋	-11.058
▁干嘛	-11.0581
▁琴	-11.0583
▁教导	-11.0584
茂	-11.0592
▁匹配	-11.0593
▁在场	-11.0594
▁清除	-11.0595
▁金钱	-11.0595
援	-11.0596
▁中华民族	-11.0597
▁闷	-11.0598
▁粒	-11.0604
▁热烈	-11.0606
制度	-11.0611
▁代替	-11.0611
▁初心	-11.0613
▁王子	-11.0614
彦	-11.0615
▁拳	-11.0617
▁肿瘤	-11.0618
闹	-11.0618
▁技術	-11.0618
▁个性化	-11.0619
▁iPhone	-11.0621
▁秩序	-11.0622
▁核实	-11.0623
▁一共	-11.0624
▁此类	-11.0626
▁臺	-11.0628
▁惟	-11.0632
▁应有	-11.0635
坑	-11.0637
▁一惊	-11.0638
▁劫	-11.0639
▁门票	-11.064
▁刑事	-11.064
關	-11.064
▁天生	-11.0641
▁价值观	-11.0642
的话	-11.0643
▁再生	-11.0646
▁刻	-11.0648
▁不时	-11.0648
逢	-11.0649
▁桃	-11.065
▁仰	-11.065
▁示意	-11.065
▁厕所	-11.0654
▁mm	-11.0654
▁廖	-11.0658
▁节约	-11.0664
▁欧元	-11.0664
▁精度	-11.0665
▁极品	-11.0668
▁职能	-11.0669
▁仪	-11.0673
昭	-11.0676
▁绿化	-11.0677
学历	-11.0678
▁舍	-11.0684
▁二分	-11.0684
科学	-11.0685
▁首要	-11.0687
▁好事	-11.0689
方案	-11.0693
▁游览	-11.0694
▁新车	-11.0696
▁连结	-11.0701
▁锅炉	-11.0702
▁进而	-11.0703
▁不安	-11.0706
▁聂	-11.0708
学位	-11.0708
▁璧	-11.0712
▁出国	-11.0713
▁進	-11.0713
▁联想	-11.0715
▁极限	-11.0716
¥	-11.0722
▁擅长	-11.0725
▁腾	-11.0725
▁公交	-11.0729
▁更改	-11.073
▁俞	-11.0733
映	-11.0733
▁一杯	-11.0734
▁防守	-11.0735
▁仓	-11.0736
▁逗	-11.0736
▁一招	-11.0737
▁棋	-11.0737
帖	-11.074
采	-11.074
默	-11.0742
▁十六	-11.0752
▁超出	-11.0752
▁献	-11.0758
▁专科	-11.076
肥	-11.076
▁電	-11.076
▁授予	-11.076
▁扬	-11.0763
▁憋	-11.0766
牢	-11.0766
▁所得	-11.0769
熊	-11.0771
▁诱惑	-11.0773
▁格外	-11.0774
▁缩	-11.0776
▁当场	-11.0777
▁额外	-11.0778
旨	-11.0778
蓉	-11.0779
ic	-11.0781
▁召唤	-11.0785
▁一团	-11.0786
▁三国	-11.0786
▁不及	-11.0787
▁报导	-11.0788
▁熟练	-11.0788
▁几人	-11.079
▁毫米	-11.0793
▁落后	-11.0797
▁扶持	-11.0801
後	-11.0802
▁嬪	-11.0806
▁税收	-11.0807
囊	-11.0808
▁通风	-11.081
寿命	-11.0811
自己	-11.0812
▁开门	-11.0815
▁央视	-11.0815
摩	-11.0818
▁恶意	-11.0819
▁购房	-11.082
▁有利	-11.082
▁化为	-11.0821
▁他們	-11.0822
▁分辨	-11.0823
湛	-11.0825
▁80%	-11.0825
▁十多	-11.0826
验	-11.0829
▁一动	-11.0831
忍	-11.0831
▁暗暗	-11.0835
▁奉献	-11.0837
楠	-11.0838
▁回顾	-11.084
▁字数	-11.0841
▁类别	-11.0841
权益	-11.0842
▁净利润	-11.0843
▁企	-11.0844
▁成型	-11.0847
▁澳洲	-11.085
柄	-11.085
▁乐趣	-11.0854
▁脱离	-11.0855
▁四处	-11.0855
资金	-11.0856
▁公正	-11.0859
▁特价	-11.086
▁影子	-11.0861
▁佛山	-11.0864
▁存款	-11.0867
把	-11.0867
▁折扣	-11.0868
▁护士	-11.0872
始	-11.0873
▁总会	-11.0874
▁卧室	-11.0875
▁辐射	-11.0875
媚	-11.088
电视台	-11.0882
▁附加	-11.0884
▁泪	-11.0886
▁许可证	-11.0887
▁尽可能	-11.0889
▁逾	-11.0894
▁新一	-11.0896
▁研	-11.0897
▁部件	-11.0897
▁遇	-11.0897
▁性命	-11.0901
戈	-11.0901
▁身高	-11.0902
▁高高	-11.0903
▁当今	-11.0904
▁焊	-11.0908
▁千年	-11.091
▁领导人	-11.0915
▁独自	-11.0916
酬	-11.0916
▁示	-11.0917
分子	-11.092
▁56	-11.092
▁父	-11.092
▁大腿	-11.0923
▁47	-11.0927
▁纠	-11.0929
▁选购	-11.0929
▁煤炭	-11.093
▁提取	-11.0931
尝	-11.0936
▁涂料	-11.094
▁中原	-11.0941
▁追踪	-11.0943
眼睛	-11.0948
▁精确	-11.095
▁分解	-11.0953
▁三位	-11.0954
拼	-11.0955
▁老虎	-11.0956
用途	-11.0964
▁如是	-11.0969
▁活動	-11.0973
▁科目	-11.0974
▁各方	-11.0974
▁高速公路	-11.0978
莎	-11.0978
芬	-11.0983
▁佛教	-11.0984
▁长得	-11.0986
▁咋	-11.0987
▁原有	-11.0991
▁爽	-11.0991
▁皇子	-11.0991
▁莲	-11.0993
▁缠	-11.0993
▁证监	-11.0995
荒	-11.0996
▁天赋	-11.0996
▁慢性	-11.1
▁帕	-11.1001
▁浓度	-11.1002
▁人身	-11.1003
控制	-11.1005
半年	-11.1007
▁康复	-11.1008
匠	-11.1011
▁主机	-11.1016
▁精选	-11.1022
▁拒	-11.1028
▁殷	-11.1028
▁昔	-11.1029
▁搜索引擎	-11.1032
▁制成	-11.1033
▁啤酒	-11.1034
▁亏损	-11.1035
霸	-11.1036
▁面上	-11.1038
考试	-11.1038
▁上官	-11.104
▁坚强	-11.1042
▁任职	-11.1044
▁耶	-11.1045
▁电路	-11.1046
▁产物	-11.105
▁忽略	-11.105
嶆	-11.105
污染	-11.1051
▁厉	-11.1052
卖家	-11.1053
▁作风	-11.1056
▁奔驰	-11.1056
▁挂牌	-11.1056
▁数字化	-11.1056
▁东南	-11.1063
▁森	-11.1064
▲	-11.1065
▁捡	-11.1066
右	-11.1067
▁讨	-11.107
▁防腐	-11.1074
▁浙江省	-11.1076
▁单一	-11.1077
▁往前	-11.1078
仇	-11.1079
▁胳膊	-11.108
▁三次	-11.1082
▁不妨	-11.1085
泥	-11.1087
▁潜在	-11.1088
状况	-11.1088
▁立马	-11.1089
▁复兴	-11.1091
操	-11.1093
▁生肖	-11.1096
▁倾向	-11.11
▁笨	-11.1101
▁而出	-11.1103
▁网易	-11.1106
腔	-11.1106
制品	-11.1106
▁筑	-11.1107
es	-11.1107
▁不负	-11.1108
▁约束	-11.1109
▁瑰	-11.1113
▁浴	-11.1115
▁特种	-11.1116
袖	-11.1117
探	-11.1119
鍔	-11.1126
缸	-11.1127
▁槽	-11.1129
潃	-11.113
▁每一	-11.1132
▁桌上	-11.1132
▁不解	-11.1134
▁航班	-11.1139
▁缺点	-11.1143
▁250	-11.1143
門	-11.1146
▁两国	-11.1147
▁鲜花	-11.1148
▁娘娘	-11.1153
▁有种	-11.1154
▁保密	-11.1156
▁集合	-11.1156
▁导弹	-11.116
妾	-11.1161
陆	-11.1163
▁欲望	-11.1163
▁检察	-11.1163
歉	-11.1164
is	-11.1164
▁奇迹	-11.1168
▁江苏省	-11.1169
侯	-11.1171
过程	-11.1172
▁护肤	-11.1172
傲	-11.1173
▁捣	-11.1174
▁专属	-11.1176
▁110	-11.1176
▁拳头	-11.1178
▁割	-11.1179
▁选项	-11.1182
▁模	-11.1187
▁节点	-11.1188
帆	-11.1189
▁标识	-11.119
▁容量	-11.1192
▁结论	-11.1199
▁面包	-11.1201
▁一小	-11.1205
▁与其	-11.1205
▁委屈	-11.1209
▁怨	-11.1209
吸	-11.1211
▁10099	-11.1213
▁化解	-11.1214
▁五月	-11.1214
▁葛	-11.1215
▁亏	-11.1215
▁感恩	-11.1215
▁草原	-11.122
▁南海	-11.1223
發	-11.1224
▁事业单位	-11.1226
▁安置	-11.1228
舒	-11.1232
▁懒	-11.1236
▁党支	-11.1237
▁交付	-11.1238
▁毕	-11.1239
▁太太	-11.1242
▁走到	-11.1242
▁10361	-11.1245
妍	-11.1247
鐢	-11.1247
▁市政府	-11.1249
媒	-11.125
▁终究	-11.1253
▁管理局	-11.1256
▁适	-11.1257
效益	-11.1258
▁京城	-11.1259
▁五金	-11.126
▁园林	-11.1261
▁添	-11.1263
▁大笑	-11.1264
▁度过	-11.1265
▁伤心	-11.1267
锐	-11.1269
▁名义	-11.1272
参考	-11.1274
▁主场	-11.1274
忌	-11.1275
▁纺织	-11.1275
键	-11.1275
▁修正	-11.1277
▁仿	-11.1279
▁陪同	-11.1283
▁去除	-11.1285
▁口腔	-11.1285
▁满满	-11.1285
工具	-11.1287
經	-11.1288
▁六个	-11.129
▁稀	-11.1294
▁該	-11.1298
瑾	-11.1298
绳	-11.13
▁扮演	-11.1301
▁亩	-11.1301
▁萌	-11.1302
机制	-11.1302
▁封闭	-11.1302
伙伴	-11.1303
▁哇	-11.1303
哟	-11.1304
數	-11.131
翠	-11.1311
▁站点	-11.1314
▁鑰	-11.1315
▁慌	-11.1317
▁修订	-11.1319
▁列入	-11.1323
方法	-11.1324
▁网络安全	-11.1327
▁86	-11.1332
▁华人	-11.1332
▁细菌	-11.1332
▁经费	-11.1333
▁创立	-11.1339
▁共计	-11.1342
拔	-11.1348
▁气象	-11.1353
▁注入	-11.1358
▁天上	-11.1359
▁大汉	-11.1362
▁友情	-11.1363
▁假期	-11.1364
▁乡镇	-11.137
▁行走	-11.1372
▁宝马	-11.1373
▁距	-11.1374
▁成品	-11.1375
I	-11.1375
▁74	-11.1379
▁忌	-11.1381
羞	-11.1381
▁路径	-11.1382
贷款	-11.1383
▁人心	-11.1383
▁宅	-11.1384
▁公安局	-11.1386
▁首选	-11.1387
▁虚假	-11.1389
▁痕迹	-11.1389
鹤	-11.139
▁体积	-11.1393
▁电磁	-11.1394
▁朵	-11.1394
▁两条	-11.1395
牧	-11.1398
▁温泉	-11.1401
▁卧	-11.1401
▁温和	-11.1403
▁风水	-11.1403
▁高科技	-11.1403
▁利息	-11.1404
▁唤	-11.1407
▁珍贵	-11.1407
▁过多	-11.1407
倩	-11.1407
▁大厦	-11.1413
续	-11.1413
▁彼	-11.1415
▁中药	-11.1415
▁人影	-11.1415
▁招呼	-11.1416
▁牛奶	-11.1416
▁沉重	-11.1417
▁崛	-11.1418
▁突发	-11.1419
裕	-11.1419
▁红包	-11.1425
▁气温	-11.1425
孙	-11.1427
▁应付	-11.1427
报告	-11.143
▁无意	-11.1431
▁感冒	-11.1432
el	-11.1435
▁上方	-11.1436
增长	-11.1437
坤	-11.1437
▁湘	-11.1437
曦	-11.1438
▁赞同	-11.1441
▁著作权	-11.1443
邻	-11.1446
ly	-11.1447
▁联合国	-11.1448
▁罚	-11.1449
▁毁灭	-11.1449
▁广播	-11.145
▁引擎	-11.1453
▁无聊	-11.1453
▁ISO	-11.1456
▁大专	-11.1459
▁網站	-11.146
▁慈	-11.1463
et	-11.1467
▁碰撞	-11.1475
▁传染	-11.1475
▁发病	-11.1476
释	-11.1476
过去	-11.1477
▁资助	-11.1479
▁骄傲	-11.148
▁鐫	-11.1481
▁放过	-11.1483
▁闪电	-11.1483
▁冰箱	-11.1484
▁180	-11.1488
▁跃	-11.1488
资产	-11.1489
▁箭	-11.1492
▁姿态	-11.1493
▁粤	-11.1496
佩	-11.1496
篷	-11.1497
欎	-11.1497
▁酒吧	-11.1498
▁冲动	-11.1499
▁风云	-11.1503
▁岩	-11.1503
cm	-11.1505
世纪	-11.1506
▁纤	-11.1509
桑	-11.151
▁盛大	-11.1511
▁击败	-11.1513
▁兑	-11.1514
虹	-11.1516
▁用地	-11.1516
▁羡慕	-11.1517
▁腐蚀	-11.152
杂	-11.152
▁步行	-11.1521
▁世间	-11.1525
▁道歉	-11.1531
娟	-11.1532
▁嫩	-11.1533
▁教训	-11.1536
▁哈哈哈	-11.1539
▁巩固	-11.1544
▁资深	-11.1546
睡	-11.1549
▁77	-11.1552
▁盒	-11.1552
▁斗争	-11.1552
不出	-11.1552
▁并不	-11.1556
鎯	-11.1557
展会	-11.1557
会儿	-11.156
▁若有	-11.1562
▁未知	-11.1563
▁他会	-11.1564
培	-11.1564
▁众生	-11.1566
拨	-11.1567
▁取代	-11.1568
意见	-11.1569
▁不明	-11.1571
▁诚	-11.1573
▁宪法	-11.1573
叹	-11.1578
▁有事	-11.1582
办法	-11.1584
▁烫	-11.1585
▁内存	-11.1587
▁产权	-11.1589
▁血管	-11.1591
▁較	-11.1595
跌	-11.1598
▁上级	-11.1602
▁孕	-11.1603
▁河南省	-11.1605
▁契	-11.1606
爆	-11.1611
价比	-11.1611
学习	-11.1612
▁国王	-11.1612
ur	-11.1613
▁萬	-11.1614
▁生理	-11.162
▁颁发	-11.1622
要求	-11.1623
机械	-11.1623
▁桃花	-11.1623
▁丫	-11.1625
▁剩余	-11.1627
▁陪伴	-11.1627
浅	-11.1631
慕	-11.1631
划	-11.1635
太太	-11.1637
▁除此	-11.164
▁繁荣	-11.1641
▁四人	-11.1642
▁遇见	-11.1643
▁情景	-11.1643
▁蜜	-11.1644
网络	-11.1649
▁夫妇	-11.1649
▁備	-11.1653
▁席	-11.1655
舌	-11.1659
▁无形	-11.166
▁□	-11.1662
▁军团	-11.1672
烧	-11.1672
痒	-11.1672
▁撇	-11.1674
▁语文	-11.1678
▁顺序	-11.1679
▁请勿	-11.1679
交易	-11.1682
盾	-11.1682
纱	-11.1683
▁分手	-11.1686
▁农用	-11.1687
▁毫	-11.1689
▁脾气	-11.169
▁渐	-11.1691
▁柱	-11.1692
▁生于	-11.1692
▁拥	-11.1693
栋	-11.1694
豹	-11.1697
▁HO	-11.1698
▁古老	-11.1701
▁平板	-11.1702
▁勤	-11.1706
▁垂直	-11.1706
▁理事	-11.1708
▁随之	-11.171
▁浇	-11.1713
改革	-11.1714
涌	-11.1719
▁针对性	-11.172
萌	-11.1721
▁挨	-11.1723
研究	-11.1724
▁栏目	-11.1725
意义	-11.1725
▁难怪	-11.1725
寻	-11.1727
▁畅	-11.1729
▁地步	-11.1732
咪	-11.1733
▁勇气	-11.1734
▁内蒙古	-11.1735
▁不准	-11.1736
▁宾馆	-11.1736
距离	-11.1736
▁相机	-11.1737
供应	-11.1738
▁贪	-11.1742
▁本周	-11.1746
猛	-11.1746
▁精美	-11.1748
▁原地	-11.1749
▁这片	-11.1751
太多	-11.1751
▁水利	-11.1751
▁压制	-11.1754
▁欣	-11.1755
坊	-11.1758
▁零部	-11.1758
▁笼罩	-11.1759
▁特意	-11.176
▁增添	-11.176
▁监	-11.1767
▁饰	-11.1768
▁养成	-11.1769
▁暗示	-11.1769
▁火灾	-11.177
▁比特	-11.1771
▁慈善	-11.1774
▁抓好	-11.1779
藤	-11.1779
乔	-11.1779
皱	-11.1786
茨	-11.1787
监督管理	-11.1789
棋	-11.1791
▁人为	-11.1792
▁热线	-11.1796
▁冻	-11.1797
▁子宫	-11.1798
▁睁开	-11.1799
▁三角	-11.18
▁脏	-11.1801
▁15280	-11.1802
▁家属	-11.1804
▁虾	-11.1807
泡	-11.1807
▁生动	-11.1808
估	-11.1808
▁艺	-11.181
▁相關	-11.1812
▁收录	-11.1813
▁ZrO	-11.1814
▁摆脱	-11.1814
▁赫	-11.1818
肩	-11.182
▁中方	-11.1822
▁袭击	-11.1822
▁环境保护	-11.1823
▁座位	-11.183
員	-11.1831
▁法人	-11.1833
戝	-11.1835
▁外出	-11.1835
参	-11.1836
▁郝	-11.1838
▁魔兽	-11.1839
▁曲线	-11.184
▁毛泽东	-11.1841
▁石家庄	-11.1841
▁生育	-11.1842
▁崇	-11.1847
行榜	-11.185
▁一脚	-11.1852
啸	-11.1853
▁密集	-11.1853
▁混沌	-11.1854
▁快点	-11.1854
▁砖	-11.1855
预	-11.186
▁编号	-11.1862
▁动静	-11.1862
▁清新	-11.1866
▁神器	-11.1869
丫头	-11.187
▁越是	-11.1871
▁言语	-11.1872
▁荷	-11.1872
目标	-11.1873
▁嫂	-11.1876
奈	-11.1878
▁感慨	-11.1879
事故	-11.1884
▁糖尿病	-11.1885
计划	-11.1886
▁赐	-11.189
▁受益	-11.1891
旅行社	-11.1891
分明	-11.1892
▁2.5	-11.1892
膏	-11.1894
▁常年	-11.1894
▁港口	-11.1894
荷	-11.1895
▁提问	-11.1899
▁出货	-11.1902
▁求职	-11.1903
▁最小	-11.1904
▁重生	-11.1905
砂	-11.1906
▁政务	-11.1907
▁新华	-11.1908
▁电动车	-11.1909
▁翡翠	-11.191
汽	-11.191
▁之心	-11.1915
▁唯有	-11.1917
▁租金	-11.1919
☆	-11.1922
▁调控	-11.1926
嗗	-11.1927
▁之地	-11.1928
积	-11.1928
▁少量	-11.1929
▁惧	-11.1931
▁外资	-11.1932
▁年初	-11.1933
▁鼓	-11.1935
▁1.2	-11.1936
▁内外	-11.1938
▁博览	-11.194
空间	-11.194
赫	-11.1941
▁预警	-11.1941
▁皇家	-11.1943
▁只得	-11.1943
▁关怀	-11.1948
▁来电	-11.195
▁大奖	-11.1951
▁细致	-11.1955
▁罚款	-11.1959
▁包围	-11.1962
▁蒸	-11.1966
渡	-11.1966
辛	-11.1967
▁渗透	-11.1972
包装	-11.1979
▁市場	-11.198
逃	-11.1981
焰	-11.1985
▁创办	-11.1986
什	-11.1989
▁拌	-11.1991
▁辞	-11.1994
▁书法	-11.1995
▁伦敦	-11.1999
作品	-11.2
教师	-11.2001
▁跨越	-11.201
咒	-11.2012
▁郎	-11.2014
▁面部	-11.2016
▁东风	-11.202
▁乐观	-11.2021
▁感激	-11.2023
聘	-11.2026
颈	-11.2027
培养	-11.2028
▁自有	-11.203
▁加密	-11.2032
▁不曾	-11.2033
▁高大	-11.2034
频	-11.2036
▁桌	-11.2037
▁Ga	-11.2041
斑	-11.2042
▁大队	-11.2043
万元	-11.2043
▁孤独	-11.2045
▁善于	-11.2046
▁纪委	-11.2051
▁咳嗽	-11.2051
▁交代	-11.2056
措	-11.2057
▁门槛	-11.2057
厉	-11.2058
▁入学	-11.2058
▁绩效	-11.2065
▁种族	-11.2067
▁无忧	-11.2069
▁洛阳	-11.207
18	-11.2071
印发	-11.2071
▁贼	-11.2072
an	-11.2072
▁不幸	-11.2073
▁抱怨	-11.2073
▁12060	-11.2074
▁赠	-11.2075
▁宇	-11.2077
▁塑	-11.2077
▁紧接	-11.208
▁袖	-11.2083
▁两家	-11.2084
▁教会	-11.2085
▁孩	-11.2095
▁隆	-11.2095
▁高档	-11.2098
▁常务	-11.2099
▁翅	-11.21
▁敬请	-11.2101
▁注射	-11.2101
▁午	-11.2102
▁体重	-11.2102
▁第十	-11.2103
▁手动	-11.2105
▁砰	-11.2105
逊	-11.2108
▁大街	-11.2115
▁我司	-11.2115
▁城区	-11.2116
▁不予	-11.2117
▁浸	-11.2117
标准化	-11.2121
▁汇聚	-11.2123
▁桥梁	-11.2126
▁上学	-11.2128
▁先行	-11.2128
▁饶	-11.2131
▁传达	-11.2131
▁历程	-11.2132
▁上映	-11.2133
▁推行	-11.2134
▁插入	-11.2135
▁骤	-11.2138
▁器材	-11.214
事业	-11.2143
▁不顾	-11.2143
▁第九	-11.2144
▁受损	-11.215
▁兰州	-11.2153
▁叹息	-11.2153
副	-11.2155
▁幻想	-11.2156
.00	-11.2158
▁首发	-11.2159
雕	-11.216
▁炎	-11.216
▁见过	-11.2162
▁海关	-11.2164
触	-11.2164
▁联手	-11.2169
▁观光	-11.2171
丸	-11.2173
▁外表	-11.2173
▁派出所	-11.2173
▁娃娃	-11.2176
▁贵族	-11.2177
▁题材	-11.2177
▁获奖	-11.2178
老师	-11.2178
間	-11.2182
▁僧	-11.2183
▁直径	-11.2183
岄	-11.2185
娌	-11.2186
▁婆婆	-11.2189
▁84	-11.2189
▁全家	-11.2192
柳	-11.2199
▁付费	-11.2201
一来	-11.2202
▁道具	-11.2202
▁迁	-11.2202
▁士	-11.2203
▁下巴	-11.2206
▁党的	-11.2207
▁长久	-11.2207
规格	-11.2207
▁專業	-11.2214
▁金刚	-11.2214
▁共建	-11.2215
▁定价	-11.2215
夹	-11.2215
13	-11.2217
捕	-11.2219
▁兑换	-11.2221
▁微软	-11.2224
▁变动	-11.2224
▁发觉	-11.2228
何况	-11.2229
纯	-11.223
堆	-11.224
▁俺	-11.2243
ia	-11.2245
▁总监	-11.2245
▁绝望	-11.2245
▁娱乐城	-11.2249
塌	-11.225
▁无敌	-11.2251
▁小声	-11.2251
纲	-11.2253
▁国庆	-11.2253
病毒	-11.226
价值	-11.2262
▁罕	-11.2263
▁福州	-11.2265
▁這個	-11.2265
▁终身	-11.2266
▁矮	-11.2267
瘦	-11.2268
▁刑	-11.227
▁没法	-11.2273
职工	-11.2274
澜	-11.2275
▁键	-11.2278
▁裤	-11.228
▁彩色	-11.228
霖	-11.228
▁便于	-11.2283
▁打出	-11.2283
之外	-11.2284
▁行销	-11.2284
▁收缩	-11.2284
▁看向	-11.2285
▁主营	-11.2287
▁何况	-11.2287
▁负面	-11.2295
▁服务中心	-11.2299
娃	-11.2302
碗	-11.2303
氧	-11.2303
麟	-11.2304
▁嫌疑人	-11.2305
▁司马	-11.2308
▁势	-11.2309
鍐	-11.2309
30	-11.231
三角	-11.231
▁益	-11.231
▁交叉	-11.2311
▁清水	-11.2315
▁还原	-11.2316
▁危	-11.2316
▁就此	-11.2317
充	-11.2318
▁高潮	-11.232
▁间接	-11.2322
▁从中	-11.2325
▁塑造	-11.2327
▁交往	-11.2328
荡	-11.2329
▁零件	-11.233
▁梵	-11.233
▁况	-11.2336
槽	-11.2336
▁实战	-11.2337
▁一组	-11.2337
▁捉	-11.2338
▁奢	-11.2338
▁削	-11.2339
▁联邦	-11.2345
▁南昌	-11.2346
狱	-11.2347
孝	-11.2348
文件	-11.2348
▁直销	-11.235
▁开业	-11.235
▁烂	-11.235
▁不屑	-11.2354
▁出身	-11.2355
▁审判	-11.2358
▁下车	-11.2358
▁广阔	-11.2362
▁太大	-11.2362
▁苏联	-11.2367
▁祁	-11.2368
▁东部	-11.2368
▁误会	-11.237
▁57	-11.237
▁牢记	-11.2373
▁釜	-11.2374
▁眼下	-11.2375
凝	-11.2377
▁探测	-11.2377
▁窗户	-11.2382
▁开工	-11.2383
▁图文	-11.2385
▁仪表	-11.2386
▁饱	-11.2386
▁拾	-11.2387
▁没用	-11.2388
合作	-11.2391
▁锅	-11.2392
爪	-11.2396
▁买房	-11.2398
押	-11.2399
▁审议	-11.2405
▁自助	-11.2405
▁航天	-11.2406
▁單	-11.2407
▁必备	-11.2408
▁光线	-11.2408
▁乖	-11.2409
开展	-11.2415
▁长长	-11.2417
跃	-11.2419
▁亲子	-11.2419
▁家乡	-11.2421
训	-11.2421
▁手腕	-11.2422
▁战术	-11.2424
▁两边	-11.2424
▁五行	-11.2426
▁一堆	-11.2426
▁舆论	-11.2429
委员	-11.2429
▁鹿	-11.2434
▁诊	-11.2435
▁最美	-11.2437
扇	-11.2438
性能	-11.2445
ㄥ	-11.2448
▁震动	-11.2449
24	-11.245
▁列车	-11.2452
▁二维	-11.2453
挡	-11.2455
▁串	-11.2455
▁媳妇	-11.2459
旧	-11.2459
客户	-11.2462
▁划分	-11.2462
习	-11.2467
▁玛	-11.2469
朵	-11.247
▁夜晚	-11.2471
▁掌控	-11.2472
▁无效	-11.2475
▁伟	-11.2477
▁藤	-11.2478
▁悟	-11.2478
▁世上	-11.2479
▁過	-11.2482
仔	-11.2483
仅	-11.2484
▁当作	-11.2485
▁耐磨	-11.2486
裔	-11.2492
盼	-11.2497
▁圣诞	-11.2497
▁扳	-11.2499
▁后台	-11.2499
▁证件	-11.2505
晋	-11.2505
▁漂	-11.2506
▁十四	-11.2509
▁赖	-11.251
▁价廉	-11.2512
▁青睐	-11.2512
犯罪	-11.2512
▁缴费	-11.2512
兘	-11.2513
▁仓储	-11.2514
▁鍥	-11.2514
▁明亮	-11.2515
▁小于	-11.2519
▁讲究	-11.252
▁拦	-11.2523
▁无定形	-11.2523
佑	-11.2525
▁好久	-11.2528
▁锁定	-11.253
▁强劲	-11.2533
▁泡沫	-11.2534
▁不像	-11.2537
▁忧	-11.2537
▁老实	-11.2538
▁扇	-11.254
▁配资	-11.254
▁兼职	-11.2541
辈子	-11.2542
ay	-11.2544
權	-11.2545
▁威尼斯	-11.2545
▁黏	-11.2545
▁理会	-11.2546
▁协	-11.2548
硬	-11.2548
▁贤	-11.2549
鎬	-11.255
▁找个	-11.2551
▁广州市	-11.2552
▁整形	-11.2554
▁联动	-11.2559
▁市政	-11.256
帐	-11.2562
▁星座	-11.2563
或	-11.2567
▁晨	-11.2567
习惯	-11.2572
▁生效	-11.2573
▁虹	-11.2577
▁人会	-11.2578
▁掠	-11.258
▁匆匆	-11.2581
▁抄	-11.2586
▁扩	-11.2586
▁四十	-11.2587
▁头部	-11.259
埌	-11.2594
经验	-11.2603
▁爪	-11.2606
▁爸	-11.261
▁活性	-11.261
▁处处	-11.2612
愈	-11.2614
支持	-11.2615
▁筛	-11.2619
▁地质	-11.2621
▁眸	-11.2621
▁五星	-11.2621
▁冠	-11.2622
▁出资	-11.2624
▁蹭	-11.2629
古怪	-11.2631
刹	-11.2632
▁暂	-11.2633
▁叮	-11.2638
玩笑	-11.2639
▁播出	-11.2639
▁幅度	-11.264
▁经纪人	-11.264
▁閭	-11.2644
▁火爆	-11.2646
行动	-11.2647
am	-11.265
▁中奖	-11.265
▁强行	-11.2652
▁挪	-11.2652
▁感叹	-11.2652
▁复印件	-11.2654
▁翘	-11.2662
▁歪	-11.2663
▁不适	-11.2663
ュ	-11.2666
▁多方	-11.2667
▁视讯	-11.2671
▁常态	-11.2672
▁惩罚	-11.2673
19	-11.2674
▁看不出	-11.2676
▁泄露	-11.2678
com	-11.2679
▁桌面	-11.2679
▁董事会	-11.2681
質	-11.2684
▁优异	-11.2686
▁荷兰	-11.2686
▁浩	-11.2689
▁列表	-11.2692
业务	-11.2692
▁不便	-11.2692
▁保管	-11.2693
▁轿车	-11.2694
▁郁闷	-11.2694
▁白衣	-11.2695
公里	-11.2698
▁警惕	-11.2698
進	-11.2702
▁功力	-11.2703
思想	-11.2704
涩	-11.2704
▁振动	-11.2704
浮	-11.2707
自然	-11.2707
卓	-11.2709
▁盗	-11.2711
▁得出	-11.2712
▁乖乖	-11.2712
自动	-11.2713
▁吃惊	-11.2713
▁宝贵	-11.2715
栈	-11.2715
▁柴	-11.2716
▁勇士	-11.2722
▁珍珠	-11.2722
▁pc	-11.2722
▁平凡	-11.2724
▁诧	-11.2725
▁结局	-11.2728
▁CeO	-11.2728
▁坦	-11.2729
▁温州	-11.2729
烂	-11.2729
▁阿里巴巴	-11.273
▁原材料	-11.2731
▁哈尔滨	-11.2735
▁上演	-11.2735
▁震荡	-11.2737
筋	-11.2737
▁滄	-11.2739
靖	-11.2739
▁情侣	-11.2741
▁CEO	-11.2742
疾	-11.2742
▁来回	-11.2747
▁开发区	-11.2748
▁难过	-11.2748
▁中小学	-11.2753
暗	-11.2757
▁体力	-11.2757
▁争夺	-11.2757
▁华丽	-11.2758
○	-11.276
拟	-11.2761
▁谈话	-11.2762
囧	-11.2765
腑	-11.2765
▁雪花	-11.2765
▁征收	-11.277
聊	-11.277
▁受害	-11.2772
▁反抗	-11.2772
▁不怎么	-11.2776
▁派出	-11.2778
▁滋味	-11.2778
熷	-11.2778
▁全天	-11.2779
▁鸭	-11.278
▁马来西亚	-11.2783
▁合伙	-11.2783
▁1306	-11.2784
酒店	-11.2786
▁國	-11.2788
▁中期	-11.2793
▁落到	-11.2795
▁河北省	-11.28
钩	-11.2801
娇	-11.2803
甜	-11.2804
▁难免	-11.2805
杖	-11.2807
小组	-11.2813
科技	-11.2813
窍	-11.2815
▁彰	-11.2816
免	-11.2817
▁工作日	-11.2819
▁拽	-11.2822
慰	-11.2824
給	-11.2825
怨	-11.2825
▁带上	-11.2827
▁葡	-11.2829
app	-11.283
▁无臭	-11.283
▁永恒	-11.2831
▁命名	-11.2836
▁溪	-11.2838
▁铸	-11.2842
瓜	-11.2847
▁码头	-11.2849
不该	-11.285
▁票房	-11.285
生产	-11.2851
▁台灣	-11.2851
▁崩	-11.2853
▁袭	-11.2853
使用	-11.2857
夕	-11.2858
▁服务业	-11.286
▁供电	-11.2861
▁喝道	-11.2865
▁书房	-11.2865
▁极端	-11.2869
担	-11.2869
▁偶	-11.287
▁双腿	-11.2873
亿	-11.2874
▁热销	-11.2882
▁指引	-11.2884
▁村里	-11.2885
▁普通人	-11.2885
▁菲律宾	-11.2886
▁十七	-11.2887
▁切换	-11.2887
▁福彩	-11.2888
▁抵抗	-11.2893
执行	-11.2893
▁星辰	-11.2894
▁救助	-11.2895
▁未成年人	-11.2896
▁淘	-11.2897
▁免责	-11.2899
36	-11.2899
▁亲切	-11.29
地址	-11.2901
僧	-11.2901
▁兄	-11.2901
▁统治	-11.2905
▁古典	-11.2908
▁顺便	-11.2908
▁洗澡	-11.291
奴	-11.2912
▁短暂	-11.2913
▁每人	-11.2913
▁储备	-11.2914
▁扣除	-11.2915
▁哪家	-11.2916
價	-11.2916
▁紫红	-11.2921
▁上周	-11.2921
▁火锅	-11.2924
▁伍	-11.2925
讲话	-11.2925
衡	-11.2927
▁润	-11.293
成绩	-11.293
▁克服	-11.2935
▁睡着	-11.2939
不觉	-11.294
▁被动	-11.2941
▁监视	-11.2942
▁耐用	-11.2943
▁栏	-11.2944
▁合金	-11.2945
偅	-11.2947
▁长春	-11.2947
▁大致	-11.2949
▁构造	-11.295
▁四川省	-11.2951
▁心得	-11.2952
▁操控	-11.2953
▁见识	-11.2953
▁复习	-11.2957
▁幸	-11.2958
▁寂寞	-11.2963
▁内衣	-11.2963
▁q	-11.2964
▁银河	-11.2966
▁罐	-11.2968
▁武装	-11.2968
▁生涯	-11.2969
宠	-11.297
▁共产党	-11.297
▁橙	-11.2974
▁高低	-11.2974
▁摆放	-11.2976
▁随手	-11.2976
璐	-11.2982
▁不可思	-11.2984
株	-11.2985
▁编码	-11.2985
宋	-11.2987
▁172.12	-11.2987
▁进出口	-11.2992
▁de	-11.2993
谦	-11.2993
检查	-11.2999
変	-11.3002
▁市区	-11.3004
▁投放	-11.3006
嗕	-11.3006
节目	-11.3006
▁这条	-11.3007
▁奥运会	-11.3008
▁附属	-11.3008
碧	-11.3008
▁牛肉	-11.3009
夫人	-11.3013
摆	-11.3014
48.80	-11.3015
▁日晚	-11.3016
▁总额	-11.3017
兮	-11.3018
涂	-11.3018
促	-11.3019
▁某某	-11.3022
▁考研	-11.3025
▁北部	-11.3026
▁长城	-11.3027
▁燃气	-11.3031
▁染	-11.3032
资料	-11.3038
艺术家	-11.3038
▁赌博	-11.3039
▁兔	-11.3039
▁质高	-11.3044
▁燃料	-11.3046
声响	-11.3051
23	-11.3054
▁不高	-11.3061
队伍	-11.3063
▁癌症	-11.3066
▁颇为	-11.3068
▁街头	-11.3068
▁饼	-11.3069
▁食材	-11.3073
抱	-11.3074
▁骑兵	-11.3076
▁互联	-11.3081
▁卞	-11.3081
效力	-11.3082
弦	-11.3084
交流	-11.3085
▁提议	-11.3085
▁打工	-11.3086
▁再见	-11.3087
桐	-11.3088
▁制冷	-11.3088
▁83	-11.3088
冥	-11.3091
製	-11.3092
▁瑞士	-11.3092
▁均衡	-11.3093
▁我来	-11.3095
▁蜂	-11.3099
▁俗	-11.3099
▁没见	-11.3099
▁财政部	-11.3099
第	-11.31
▁外围	-11.3101
▁饰演	-11.3103
▁偶像	-11.3105
▁门前	-11.3109
it	-11.311
▁许久	-11.3111
▁宏观	-11.3117
誉	-11.3118
不可	-11.3119
▁另有	-11.312
▁枯	-11.3125
▁讲座	-11.3125
▁0.5	-11.3126
▁韩国队	-11.3126
▁抱住	-11.3128
茹	-11.3128
▁线条	-11.313
▁女王	-11.313
▁关税	-11.3133
▁践	-11.3133
▁笑笑	-11.3134
▁事务所	-11.3135
▁现已	-11.3135
阻	-11.3139
re	-11.314
▁车站	-11.314
允	-11.3141
鹿	-11.3143
26	-11.3144
▁太后	-11.3144
▁准则	-11.3146
▁SUV	-11.3146
▁一期	-11.3147
彬	-11.3148
▁胸部	-11.315
■	-11.3151
▁女装	-11.3151
▁釉	-11.3154
▁芯	-11.3155
▁实地	-11.3159
▁选拔	-11.3159
▁泪水	-11.3159
▁亲密	-11.3166
如何	-11.3167
▁自杀	-11.3168
▁自拍	-11.3168
枚	-11.3171
▁崩溃	-11.3171
▁小儿	-11.3172
▁甄	-11.3172
▁梳理	-11.3173
▁比如说	-11.3173
▁头脑	-11.3177
▁咒	-11.318
▁识	-11.3181
▁寿	-11.3182
▁伦理	-11.3186
▁GDP	-11.3187
▁备份	-11.3188
▁SEO	-11.319
▁深厚	-11.3196
▁奶粉	-11.3199
▁备受	-11.3199
▁辩	-11.32
窝	-11.32
il	-11.3202
▁挥手	-11.3202
▁骚	-11.3203
▁紫色	-11.3204
▁听取	-11.3204
▁得罪	-11.3206
▁网民	-11.3207
规则	-11.3209
▁周岁	-11.3212
一枚	-11.3216
▁废弃	-11.3216
▁遗传	-11.3218
us	-11.3224
▁签名	-11.3226
反应	-11.3229
不动	-11.3229
推	-11.3232
▁滀	-11.3232
沛	-11.3236
▁激活	-11.3236
.3%	-11.3236
认	-11.3238
黎	-11.324
▁暗中	-11.3242
▁窝	-11.3242
▁谷歌	-11.3243
宣	-11.3246
▁台上	-11.3247
▁隆重	-11.3248
▁顶尖	-11.3252
津	-11.3252
▁整整	-11.3253
▁瑕	-11.3254
▁无锡	-11.3255
▁小白	-11.3256
▁灵气	-11.3261
▁过敏	-11.3263
▁口袋	-11.3263
▁变态	-11.3264
▁一律	-11.3265
矩	-11.3265
健康	-11.3266
▁夫	-11.3268
▁前沿	-11.3269
▁参展	-11.3273
▁勭	-11.3277
替	-11.3277
▁发热	-11.3279
▁包头	-11.328
▁92	-11.328
▁笑话	-11.3281
▁失业	-11.3283
娅	-11.3285
▁分泌	-11.3285
人才	-11.3285
▁汇率	-11.3287
bet	-11.3287
▁励志	-11.3291
▁外套	-11.3292
▁单身	-11.3296
▁犬	-11.3296
▁屠	-11.3297
▁介入	-11.33
电脑	-11.3302
▁开创	-11.3302
復	-11.3303
晕	-11.3304
▁鲜明	-11.3307
女孩	-11.3307
▁闪烁	-11.3308
▁网游	-11.3309
胖	-11.3317
影响	-11.3317
.7	-11.3318
▁焦虑	-11.332
芷	-11.332
▁学位	-11.3321
▁qq	-11.3321
▁动员	-11.3322
▁振	-11.3324
▁掐	-11.3324
▁經	-11.3324
▁身前	-11.3326
▁预定	-11.3329
▁时空	-11.333
▁找出	-11.3333
▁引用	-11.3335
▁遇上	-11.3338
▁文档	-11.3338
▁试用	-11.3344
▁ID	-11.3349
琦	-11.3349
▁国防	-11.3349
▁重质	-11.335
▁奸	-11.335
▁导游	-11.3351
工业	-11.3351
▁鹰	-11.3353
▁外形	-11.3353
▁一举	-11.3353
▁铵	-11.3355
▁外贸	-11.3362
▁风情	-11.3365
▁700	-11.3368
而出	-11.3368
▁洪水	-11.3368
▁伙	-11.3369
▁住院	-11.337
抗	-11.337
▁13465	-11.3372
▁事后	-11.3374
▁退回	-11.3374
竞争	-11.3376
▁无可	-11.3382
▁梦见	-11.3382
▁机票	-11.3383
▁一剑	-11.3384
▁亲人	-11.3385
▁勇敢	-11.3385
垢	-11.3387
▁台南	-11.3388
而来	-11.3388
▁货运	-11.3389
▁VIP	-11.339
▁低温	-11.3391
書	-11.3395
▁无情	-11.3397
▁转动	-11.3398
▁王国	-11.3399
▁友谊	-11.3399
te	-11.34
at	-11.34
▁裸	-11.3403
电影	-11.3405
▁大海	-11.3408
▁半点	-11.3408
▁堝	-11.3409
髓	-11.3411
▁一经	-11.3413
畅	-11.3414
勪	-11.3414
▁除尘	-11.3415
▁著作	-11.3417
▁MP	-11.3419
▁谓	-11.342
▁厂房	-11.3421
笂	-11.3422
▁军人	-11.3422
▁饲料	-11.3423
▁多功能	-11.3424
完成	-11.3426
ai	-11.3427
屿	-11.3429
蝶	-11.3435
▁中级	-11.3435
▁隧道	-11.3438
联储	-11.3438
▁呼吁	-11.3442
▁蚊	-11.3442
▁不许	-11.3444
▁进化	-11.3449
▁辣	-11.345
蜜	-11.345
▁窗外	-11.345
▁打扮	-11.3453
▁荧光	-11.3455
▁一所	-11.3458
▁......	-11.3459
▁汝	-11.3459
▁南部	-11.3461
▁一出	-11.3462
▁世家	-11.3464
▁缓	-11.3464
▁丸	-11.3466
旦	-11.3466
▁有益	-11.3469
▁咸	-11.347
挂	-11.3471
▁吞噬	-11.3474
▁分成	-11.3479
▁既有	-11.3479
▁歌手	-11.3482
▁呃	-11.3483
▁无尽	-11.3484
▁中等	-11.3488
▁颤	-11.349
▁堕	-11.3491
▁六合	-11.3493
▁耍	-11.3495
难看	-11.3496
▁抵押	-11.3498
▁5.85	-11.3499
▁灾	-11.3499
▁1000	-11.35
慎	-11.35
▁比重	-11.3501
▁愛	-11.3501
▁僵尸	-11.3501
涉	-11.3502
▁俯	-11.3503
狐	-11.3503
▁瑙	-11.3506
▁黑褐	-11.3507
▁医保	-11.3508
形象	-11.3508
▁金沙	-11.3509
▁浅蓝	-11.3509
▁夜间	-11.3511
▁老祖	-11.3511
▁反击	-11.3512
▁注视	-11.3513
▁龙头	-11.3515
級	-11.3516
▁物体	-11.3519
容器	-11.3529
▁百家	-11.353
▁小伙	-11.3532
摄	-11.3532
▁忙碌	-11.3533
▁屋里	-11.3534
人民	-11.3537
▁迹	-11.3538
翼翼	-11.354
嶈	-11.3542
隔	-11.3547
不然	-11.3549
▁送货	-11.3549
▁太空	-11.355
▁衍生	-11.355
▁re	-11.3551
ro	-11.3552
芝	-11.3554
钧	-11.3554
▁介质	-11.3554
麦	-11.3556
▁入选	-11.3556
▁贴心	-11.3556
▁判决	-11.3559
▁现身	-11.3562
趋势	-11.3562
▁张贴	-11.3562
▁合法性	-11.3564
▁曹操	-11.3564
▁祸	-11.3565
▁恶心	-11.3566
▁我能	-11.3566
▁信托	-11.3567
▁有名	-11.3569
▁男士	-11.3571
▁关节	-11.3575
▁贷	-11.358
肝	-11.3585
陷	-11.3585
渣	-11.3587
介	-11.3589
▁牛仔	-11.359
鐒	-11.3591
闪	-11.3594
滚	-11.3596
▁拆除	-11.3597
▁先天	-11.3599
▁什	-11.3601
▁录音	-11.3601
▁信贷	-11.3602
▁风机	-11.3602
▁标的	-11.3602
▁尊敬	-11.3602
▁卻	-11.3604
▁蔓延	-11.3607
▁雕刻	-11.3607
鑳	-11.3607
▁夸张	-11.3611
▁一击	-11.3611
▁急速	-11.3615
▁忠诚	-11.3616
▁雷霆	-11.3617
察	-11.3619
食品	-11.362
▁斤	-11.362
▁買	-11.3622
3.224	-11.3623
行了	-11.3623
▁护卫	-11.3626
▁爱国	-11.3629
▁马克思主义	-11.3629
▁洒	-11.3632
勮	-11.3633
▁绽	-11.3633
▁客房	-11.3634
▁后方	-11.3635
篃	-11.3636
▁何必	-11.3636
▁钙	-11.3638
▁婚纱	-11.3638
▁下手	-11.364
▁1998	-11.3642
闲	-11.3643
鉴于	-11.3643
赖	-11.3645
魦	-11.3645
▁白云	-11.3645
▁八卦	-11.3647
▁芥	-11.3647
▁细腻	-11.3648
今	-11.365
▁死去	-11.365
▁迷人	-11.365
▁触摸	-11.3654
▁捐赠	-11.3658
▁甜蜜	-11.3661
▁装配	-11.3662
50	-11.3663
▁72	-11.3664
▁NBA	-11.3665
▁晃	-11.3665
▁中东	-11.3666
▁绝缘	-11.3666
▁澳	-11.3667
瘾	-11.3672
▁沃	-11.3676
▁得分	-11.3682
紵	-11.3683
57.82	-11.3686
▁好不	-11.3688
▁千里	-11.3688
▁笑声	-11.3688
師	-11.3689
▁感知	-11.369
▁知晓	-11.3691
達	-11.3692
驰	-11.3697
桂	-11.3702
▁缩短	-11.3703
舱	-11.3705
冶	-11.3705
▁户口	-11.3705
▁薪	-11.3705
▁食品安全	-11.3705
统计	-11.3708
▁决议	-11.3708
▁實	-11.371
▁邪恶	-11.3718
▁致命	-11.3718
▁相继	-11.372
▁梦幻	-11.3722
▁民事	-11.3722
典礼	-11.3724
▁国度	-11.3725
▁简历	-11.3725
人物	-11.3726
▁备用	-11.3729
▁绳	-11.373
▁扩散	-11.3731
▁各有	-11.3733
▁裂	-11.3735
▁区间	-11.3739
▁正义	-11.3741
▁倡导	-11.3741
▁帽子	-11.3743
择	-11.3745
棚	-11.3746
唐	-11.3746
▁排水	-11.3747
▁太原	-11.3748
▁拧	-11.375
▁安徽省	-11.375
▁整齐	-11.375
▁星球	-11.3751
狮	-11.3752
▁黄河	-11.3753
▁奠	-11.3755
▁阴茎	-11.3755
残	-11.3759
斥	-11.3761
▁461.2	-11.3764
▁承载	-11.3767
妥	-11.377
▁帶	-11.377
铟	-11.3774
▁绣	-11.3777
时代	-11.3779
遥	-11.3779
▁离不开	-11.378
▁轮回	-11.3784
芸	-11.3784
▁粥	-11.3794
▁判	-11.3795
▁校区	-11.3797
雁	-11.3797
▁科普	-11.3799
▁年内	-11.38
艺术	-11.3801
–	-11.3805
▁小弟	-11.3808
▁一战	-11.381
嚭	-11.3812
偶	-11.3813
▁厨	-11.3815
▁农场	-11.3816
▁子弹	-11.3818
碑	-11.3818
▁珠海	-11.3821
贞	-11.3823
▁人来	-11.3827
丧	-11.3828
▁颁	-11.383
▁持久	-11.383
▁睁	-11.3832
▁几下	-11.3832
熸	-11.3832
ot	-11.3833
▁承办	-11.3833
▁罗马	-11.3833
▁维权	-11.3834
▁一刀	-11.3835
▁大夫	-11.3836
个月	-11.3836
▁渣	-11.384
⊙	-11.384
▁五百	-11.384
▁重建	-11.3842
▁订阅	-11.3847
▁流传	-11.3851
胸	-11.3851
▁前身	-11.3854
▁奏	-11.3854
▁大国	-11.3858
▁刷新	-11.3859
im	-11.3859
▁自愿	-11.386
窄	-11.3862
▁数千	-11.3863
▁晓	-11.3866
▁一幅	-11.3866
艘	-11.3866
▁增大	-11.3869
详	-11.3869
▁朗	-11.3869
▁募	-11.3872
▁观赏	-11.3873
驾	-11.3875
▁十个	-11.3875
▁县级	-11.3876
▁房门	-11.3877
▁领袖	-11.3881
▁拐	-11.3882
▁月经	-11.3885
分析	-11.3886
宽	-11.3888
▁家园	-11.3892
▁风雨	-11.3894
▁坚守	-11.3895
▁粮	-11.3895
▁岸	-11.3904
21.45	-11.3905
疹	-11.3906
▁抵挡	-11.391
▁细细	-11.391
▁霜	-11.3912
▁70%	-11.3915
見	-11.3918
▁问问	-11.3918
▁喃喃	-11.3922
▁楼梯	-11.3926
▁严禁	-11.3926
▁柏	-11.393
▁迷失	-11.3933
▁螺旋	-11.3934
▁逍遥	-11.3936
▁阻	-11.3936
▁举起	-11.3936
▁邹	-11.3936
畔	-11.3938
▁人性	-11.394
▁細	-11.3943
▁喜悦	-11.3945
▁拥抱	-11.3946
▁熬	-11.3948
▁称呼	-11.395
实实	-11.3952
▁管理工作	-11.3953
▁晋升	-11.3953
▁同時	-11.3956
瓙	-11.3956
▁車	-11.3957
▁勒	-11.3958
▁省市	-11.3958
滩	-11.396
妆	-11.3961
▁轻微	-11.3961
▁仍旧	-11.3962
▁应聘	-11.3963
▁一号	-11.3964
▁刻意	-11.3968
▁计量	-11.3969
▁必需	-11.3972
▁水面	-11.3975
眠	-11.3975
▁张开	-11.3978
▁硬盘	-11.3979
▁沙漠	-11.398
▁湾	-11.398
▁之意	-11.3982
▁張	-11.3982
▁销	-11.3983
▁水准	-11.3985
▁半空	-11.3986
▁一首	-11.3987
▁年来	-11.3988
▁这下	-11.3989
▁was	-11.399
▁孝	-11.3994
▁佹	-11.3994
▁占有	-11.3995
▁钢琴	-11.3996
▁转播	-11.3997
还	-11.3997
带走	-11.3998
▁闭上	-11.4004
	-11.4009
▁门窗	-11.4014
▁十万	-11.4015
翁	-11.4018
▁偶然	-11.402
▁姑	-11.4021
▁加重	-11.4025
▁刹那	-11.4032
▁新款	-11.4032
抖	-11.4038
▁庙	-11.4039
函	-11.4039
▁评分	-11.404
▁山水	-11.4041
▁几百	-11.4046
▁创业者	-11.4048
▁公安机关	-11.4049
不下	-11.4052
构	-11.4052
▁畅销	-11.4052
▁安卓	-11.4053
▁县委	-11.4055
不懂	-11.4055
避	-11.4063
▁机电	-11.4064
▁疗	-11.4069
▁有害	-11.4069
▁告别	-11.4069
▁半晌	-11.407
100	-11.4073
▁该死	-11.4077
▁当局	-11.4078
▁机组	-11.408
▁浴室	-11.408
▁过年	-11.408
▁外地	-11.4082
一看	-11.4085
稍	-11.4087
▁着手	-11.4093
▁魅	-11.4094
横	-11.4097
公园	-11.4104
叉	-11.4105
需求	-11.4107
▁好象	-11.4107
赏	-11.4108
基础	-11.411
▁用药	-11.411
▁VR	-11.411
▁磋	-11.4111
▁国民党	-11.4111
合同	-11.4111
▁骨干	-11.4111
▁至尊	-11.4112
▁幸好	-11.4113
▁失踪	-11.4115
▁书写	-11.4118
處	-11.412
丘	-11.412
▁澹	-11.4121
▁固体	-11.4125
▁不堪	-11.4126
▁排队	-11.4128
素质	-11.4128
晖	-11.4129
▁恐	-11.4129
▁征求	-11.413
▁35725	-11.4131
▁遵	-11.4131
▁局限	-11.4133
利益	-11.4133
媛	-11.4134
▁一门	-11.4134
▁晓得	-11.4135
▁漫	-11.4137
▁溜	-11.4138
▁麻将	-11.4139
▁琼	-11.4142
庞	-11.4146
▁很长	-11.4148
厢	-11.415
居家	-11.4151
衷	-11.4151
▁默认	-11.4151
▁包邮	-11.4152
▁建筑面积	-11.4153
▁大方	-11.4155
鏂	-11.4156
工资	-11.4156
▁文献	-11.4157
酯	-11.4157
▁司徒	-11.4159
▁之声	-11.416
迎	-11.4161
▁丧失	-11.4162
逐	-11.4162
介绍	-11.4163
▁抽出	-11.4164
▁育	-11.4167
▁译	-11.4168
▁范畴	-11.417
爾	-11.4171
▁候选	-11.4171
▁诀	-11.4171
▁商人	-11.4171
阿	-11.4173
笼	-11.4174
▁1997	-11.4174
▁光滑	-11.4177
▁交警	-11.418
▁东南亚	-11.4181
▁常识	-11.4186
▁牌子	-11.4188
▁半导体	-11.419
▁香水	-11.419
▁南北	-11.4192
膛	-11.4193
▁入侵	-11.4197
▁蝴蝶	-11.4198
滴	-11.42
▁握住	-11.4204
開	-11.4205
▁调试	-11.4208
▁风暴	-11.4212
▁中秋	-11.4213
▁明月	-11.4216
配件	-11.4216
▁摄像	-11.4217
▁不信	-11.4218
▁绘画	-11.4221
▁同伴	-11.4221
▁否认	-11.4221
▁2000	-11.4222
▁冰雪	-11.4223
▁225.82	-11.4224
▁160	-11.4224
沫	-11.4229
▁带头	-11.4229
▁余人	-11.423
▁盒子	-11.4232
▁出租车	-11.4233
▁散热	-11.4235
▁各界	-11.4236
▁社會	-11.4236
▁减速	-11.4238
22	-11.4239
▁市面	-11.4243
▁局势	-11.4247
姑	-11.4248
▁轮胎	-11.425
▁誓	-11.4251
▁打扰	-11.4251
▁风光	-11.4253
ad	-11.4253
▁1313	-11.4254
▁網	-11.4256
▁12061	-11.4257
▁尽力	-11.4257
▁不大	-11.4258
▁382.4	-11.4262
▁蒸汽	-11.4263
▁演绎	-11.4268
栓	-11.4268
蛋白	-11.4268
種	-11.427
沃	-11.427
▁菌	-11.4271
▁耳机	-11.4272
▁一万	-11.4272
帕	-11.4273
▁毛巾	-11.4275
▁伪	-11.4276
▁僵	-11.4276
▁牢固	-11.428
诉	-11.4285
▁GB	-11.429
▁牧	-11.4291
▁水质	-11.4291
▁沟	-11.4292
▁阳台	-11.4292
▁携	-11.4293
▁老人家	-11.4296
▁斑	-11.4296
▁升高	-11.4296
培训	-11.4297
▁手持	-11.4297
▁PS	-11.43
▁有何	-11.4301
▁葡萄酒	-11.4303
▁宝石	-11.4304
选择	-11.4306
▁编写	-11.4307
▁贫	-11.4308
▁吉祥	-11.4308
▁债	-11.4311
镖	-11.4314
▁昭	-11.4315
▁大批	-11.4317
▁黑龙江	-11.4317
▁膨胀	-11.432
▁督导	-11.4322
▁内在	-11.4323
▁App	-11.4324
菊	-11.4325
▁逸	-11.4325
夺	-11.4329
▁特有	-11.433
▁两三	-11.4331
▁过分	-11.4332
▁入手	-11.4332
▁区分	-11.4333
▁王妃	-11.4333
▁青海	-11.4334
▁届时	-11.4336
▁派遣	-11.4338
▁木材	-11.434
▁狐狸	-11.434
▁经纪	-11.4341
▁春季	-11.4342
▁阿尔	-11.4342
▁早晨	-11.4345
恤	-11.4348
▁HN	-11.4348
▁1308	-11.4351
▁流出	-11.4351
▁信念	-11.4351
實	-11.4351
▁操纵	-11.4352
▁出入	-11.4354
▁走来	-11.4355
▁血脉	-11.4356
▁香味	-11.4357
▁关爱	-11.4358
▁大叔	-11.4359
▁易于	-11.436
▁系統	-11.436
▁亲戚	-11.4362
▁轉	-11.4362
▁坠	-11.4363
▁朝阳	-11.4363
▁做成	-11.4368
▁乞	-11.4371
▁沒有	-11.4372
▁督促	-11.4372
▁省份	-11.4372
▁身体健康	-11.4372
▁缘故	-11.4372
▁起诉	-11.4374
▁筛选	-11.4379
抚	-11.438
▁龟	-11.4381
▁助手	-11.4383
▁自律	-11.4387
▁看得	-11.4387
▁雕	-11.4389
▁搅	-11.4389
▁山上	-11.4391
48	-11.4392
梯	-11.4393
▁综艺	-11.4394
▁更高	-11.4395
▁2.0	-11.4395
▁下属	-11.4402
▁本钱	-11.4403
項	-11.4403
彤	-11.4404
▁优越	-11.4405
▁二手房	-11.4407
ir	-11.4407
▁默	-11.441
▁裁判	-11.4413
▁交通运输	-11.4414
▁封印	-11.4416
▁职员	-11.4417
▁在职	-11.4418
▁党内	-11.4419
鐜	-11.4419
▁出血	-11.4419
▁缩小	-11.4423
▁In	-11.4428
▁邀	-11.4428
▁火热	-11.4429
ter	-11.4429
▁太平	-11.4431
▁14483	-11.4433
之处	-11.4433
ation	-11.4435
匪	-11.4435
▁双目	-11.4437
▁挽	-11.4437
堵	-11.4439
▁店面	-11.4443
▁施行	-11.4446
▁保有	-11.4447
朴	-11.4447
平方公里	-11.445
▁低调	-11.445
▁阵容	-11.445
▁往后	-11.4451
▁新高	-11.4452
▁骞	-11.4455
▁严厉	-11.4456
3%	-11.4462
▁坚实	-11.4462
秒	-11.4463
▁文本	-11.4463
绩	-11.4466
▁心神	-11.4466
▁料理	-11.4469
▁喘	-11.4471
▁豆腐	-11.4471
▁裤子	-11.4473
功能	-11.4473
▁Google	-11.4477
▁土耳其	-11.4481
▁天猫	-11.4484
▁武清	-11.4484
▁拱	-11.4484
▁回国	-11.4485
溢	-11.4486
简介	-11.4486
▁盆	-11.4487
▁固然	-11.4487
▁期刊	-11.4489
▁开学	-11.449
▁阻碍	-11.4491
36.48	-11.4493
▁聚会	-11.4493
▁丙	-11.4494
▁公交车	-11.4495
▁趣味	-11.4496
16	-11.4497
▁可达	-11.4498
▁出具	-11.4498
▁六年	-11.4502
▁肿	-11.4502
▁监狱	-11.4507
丰富	-11.4509
一致	-11.4511
▁陌生人	-11.4512
风险	-11.4515
▁不去	-11.4518
▁噪音	-11.452
愧	-11.452
▁执政	-11.4521
成果	-11.4523
▁比分	-11.4524
▁归属	-11.4527
努力	-11.4528
▁头条	-11.4529
▁营收	-11.4529
摇	-11.4532
▁历经	-11.4534
▁搓	-11.4535
▁阀门	-11.4536
▁进球	-11.4538
▁疲惫	-11.4541
▁扮	-11.4541
▁发酵	-11.4541
▁敷	-11.4544
▁近几年	-11.4547
▁恶劣	-11.4548
▁增进	-11.4549
▁摄像头	-11.4554
▁中共中央	-11.4559
幼	-11.4562
▁男主	-11.4562
▁迫	-11.4563
腻	-11.4564
▁含义	-11.4565
▁等候	-11.457
▁双重	-11.457
▁底下	-11.4571
▁初级	-11.4571
▁佩服	-11.4572
▁咳	-11.4575
▁美军	-11.4577
▁捂	-11.4582
▁出处	-11.4583
▁多位	-11.4586
系数	-11.4587
瞧	-11.4588
▁疲劳	-11.4588
▁假设	-11.459
▁蓝天	-11.4591
其妙	-11.4592
▁尖叫	-11.4592
▁研究员	-11.4592
▁骆	-11.4594
▁糟糕	-11.4596
▁例外	-11.4596
▁戳	-11.4596
man	-11.46
▁摩托车	-11.4605
本事	-11.4605
位置	-11.4606
▁热量	-11.4607
▁开辟	-11.4611
▁杠杆	-11.4612
21	-11.4614
▁抖	-11.4615
▁瞎	-11.4616
▁万物	-11.4616
▁墙面	-11.4616
▁心理学	-11.4617
▁373.0	-11.4617
▁几率	-11.4617
资格	-11.4617
▁盲目	-11.4618
▁这事	-11.4619
▁狮子	-11.462
▁佐	-11.462
▁明日	-11.4622
▁宁静	-11.4623
▁治愈	-11.4623
▁钢管	-11.4624
▁不难	-11.4624
▁掌门	-11.4628
▁神话	-11.4629
▁扭曲	-11.4631
▁主播	-11.4633
▁大楼	-11.4634
闷	-11.4634
邮	-11.4636
▁四季	-11.4637
▁兵器	-11.4638
▁压抑	-11.464
▁湖北省	-11.4643
睿	-11.4644
▁优美	-11.4646
▁捐	-11.4648
▁管辖	-11.4649
▁坦克	-11.4649
200	-11.465
▁面板	-11.4651
▁龙虎	-11.4651
▁家用	-11.4651
▁改编	-11.4652
▁白酒	-11.4657
▁查找	-11.4657
之下	-11.4658
▁台风	-11.4658
華	-11.4658
▁渡	-11.4659
▁呻吟	-11.4659
▁鸣	-11.466
肌	-11.4661
▁取决	-11.4661
▁纽	-11.4661
▁直线	-11.4662
▁到期	-11.4665
▁涓涓	-11.4667
▁傳	-11.4668
▁过渡	-11.467
▁头痛	-11.467
逆	-11.4673
▁传真	-11.4673
▁柴油	-11.4674
▁星空	-11.4676
辖区	-11.4677
▁升降	-11.4682
▁编程	-11.4682
▁履	-11.4682
▁慧	-11.4685
▁130	-11.4686
▁各种各	-11.4686
▁金光	-11.4688
▁勃	-11.469
▁恕	-11.4691
▁捞	-11.4693
▁處	-11.4694
▁政协	-11.4697
暑	-11.4698
▁严谨	-11.4698
▁吸潮	-11.4699
▁桶	-11.4703
▁脉	-11.4705
▁岗	-11.4713
▁瞥	-11.4713
▁改装	-11.4714
▁名叫	-11.4714
▁不吃	-11.4715
大会	-11.4718
▁本能	-11.4725
瀵	-11.4726
▁从不	-11.4727
▁商用	-11.4728
▁模特	-11.4729
茜	-11.473
瞳	-11.4732
鐩	-11.4734
▁早点	-11.4738
▁一千	-11.4743
▁不论是	-11.4743
▁户籍	-11.4744
▁叶子	-11.4744
▁坐落	-11.4746
▁一事	-11.4748
▁号线	-11.4751
▁保守	-11.4752
淑	-11.4754
▁一秒	-11.4758
▁被迫	-11.4758
▁捷	-11.4758
▁流畅	-11.4759
▁撮	-11.4764
▁制药	-11.4764
寂	-11.4768
▁几十年	-11.4768
▁欢喜	-11.4768
▁陷阱	-11.477
▁拯救	-11.477
▁咯	-11.4776
▁瓜	-11.4779
▁显现	-11.4782
▁受访	-11.4782
▁接连	-11.4785
鼻	-11.4785
▁恭敬	-11.4787
璁	-11.4791
▁访	-11.4792
究	-11.4796
▁弗	-11.4796
▁契约	-11.4797
闈	-11.4797
▁时分	-11.4798
▁1312	-11.4798
▁寝	-11.48
▁韬	-11.48
▁围观	-11.4801
▁预备	-11.4801
霄	-11.4806
▁扛	-11.4807
▁名人	-11.4808
▁诗人	-11.4809
▁图形	-11.481
▁多谢	-11.4811
记者	-11.4812
么	-11.4813
▁勇	-11.4815
▁菜单	-11.4816
▁映	-11.4816
▁起床	-11.4816
▁垮	-11.4818
甲醛	-11.4819
▁石材	-11.482
句话	-11.4822
▁撰写	-11.4822
▁调度	-11.4822
▁衣物	-11.4823
▁知名度	-11.4823
▁歇	-11.4823
▁以色列	-11.4824
▁对照	-11.4825
辩	-11.4826
as	-11.4827
▁公式	-11.4831
▁恒大	-11.4833
简	-11.4833
▁艺人	-11.4835
▁极度	-11.4837
▁月亮	-11.4838
证书	-11.4839
▁路边	-11.4839
▁表彰	-11.4842
▁杰出	-11.4843
嘱	-11.4844
经理	-11.4844
▁ス	-11.4845
▁新娘	-11.4846
▁不忘	-11.485
欏	-11.4852
▁牢牢	-11.4853
▁戏剧	-11.4853
▁正版	-11.4854
▁命中	-11.4857
▁经济学	-11.4857
仰	-11.4858
▁播	-11.4861
孕	-11.4862
▁中断	-11.4867
▁模仿	-11.4867
各地	-11.4868
▁公元	-11.4871
笅	-11.4873
▁死死	-11.4874
▁法官	-11.4874
▁黑白	-11.4875
▁倾斜	-11.4875
浦	-11.4876
▁遍布	-11.4876
▁悲伤	-11.4881
▁企图	-11.4883
▁转发	-11.4887
▁船舶	-11.4888
▁首饰	-11.4889
▁小吃	-11.4889
▁弃	-11.4889
衍	-11.489
▁存放	-11.4891
亿元	-11.4895
▁庞	-11.4897
陀	-11.49
濆	-11.4902
▁钓鱼	-11.4902
▁辽	-11.4905
峻	-11.4909
▁西门	-11.4912
▁希腊	-11.4914
▁看清	-11.4915
▁流水	-11.4916
循环	-11.4916
时报	-11.4918
▁纪检	-11.4919
▁无穷	-11.4921
宪	-11.4924
▁必将	-11.4924
▁扒	-11.4925
▁实物	-11.4925
▁撞击	-11.4925
▁一波	-11.4926
瑜	-11.4927
聪	-11.493
▁简约	-11.4931
▁蜀	-11.4933
夠	-11.4934
▁現	-11.4934
▁通行	-11.4936
▁底线	-11.4937
▁日报	-11.4938
▁雪白	-11.4939
▁细心	-11.4942
冀	-11.4946
▁十余	-11.495
▁兜	-11.495
不清	-11.4952
吗	-11.4953
▁選擇	-11.4956
▁养护	-11.4956
炲	-11.4956
▁违纪	-11.4962
▁向来	-11.4963
▁清明	-11.4963
▁颁奖	-11.4967
▁予	-11.4968
▁出场	-11.4969
▁古城	-11.4969
辅	-11.4971
▁饰品	-11.4974
▁交互	-11.4979
▁通過	-11.498
▁键盘	-11.498
▁开端	-11.4982
▁妥善	-11.4982
▁贵阳	-11.4983
▁修建	-11.4988
其后	-11.4988
▁向下	-11.4994
▁撤销	-11.4995
.6	-11.4996
▁长发	-11.4997
▁弓	-11.4997
▁用水	-11.4997
▁臀	-11.4998
▁报复	-11.4999
所谓	-11.5006
弘	-11.5007
▁起步	-11.5008
▁相差	-11.5009
▁同类	-11.501
id	-11.501
菇	-11.501
▁转眼	-11.5011
▁悦	-11.5014
串	-11.5014
▁向往	-11.5015
▁无名	-11.5016
▁走访	-11.5018
肚	-11.5018
▁指令	-11.5018
▁周一	-11.5019
▁三千	-11.5019
▁排出	-11.502
▁受不了	-11.502
▁室外	-11.5021
▁听得	-11.5022
▁1200	-11.5024
▁眨眼	-11.5024
▁人格	-11.5029
▁邻居	-11.5029
握	-11.503
▁曝	-11.5035
25.81	-11.5038
▁苍白	-11.5039
磅	-11.504
▁累积	-11.5042
▁此地	-11.5044
柔和	-11.5044
▁欺骗	-11.5046
▁份额	-11.5047
▁门户	-11.5048
▁总有	-11.5054
▁劳务	-11.5054
绍	-11.5055
▁机床	-11.5056
▁迅雷	-11.5056
▁日记	-11.5056
▁外人	-11.5058
筑	-11.5065
▁适量	-11.5066
▁裹	-11.5066
无双	-11.5066
▁is	-11.5069
▁那一刻	-11.507
▁叛	-11.5072
▁心跳	-11.5072
▁防爆	-11.5075
▁雕塑	-11.5076
尾巴	-11.5077
垂	-11.5078
▁三四	-11.5078
▁湖南省	-11.5081
贸	-11.5081
▁增值	-11.5081
▁润滑	-11.5087
▁偷拍	-11.5088
奏	-11.5089
▁贝尔	-11.5091
▁for	-11.5091
▁侍卫	-11.5096
▁北美	-11.51
▁風	-11.5103
▁小康	-11.5109
▁窜	-11.511
▁坚	-11.511
▁留给	-11.5112
▁敢于	-11.5112
▁妻	-11.5116
▁一说	-11.5117
▁变压器	-11.512
▁大姐	-11.512
▁违约	-11.5122
询	-11.5123
不着	-11.5126
▁寒冷	-11.5129
▁747.7	-11.5129
▁吸附	-11.513
▁烘干	-11.5132
实话	-11.5133
▁贱	-11.5134
▁大大的	-11.5135
事件	-11.5136
▁桂	-11.5137
▁寻常	-11.514
▁超高	-11.514
▁68	-11.514
▁基准	-11.5141
▁酒精	-11.5141
▁称之	-11.5143
係	-11.5145
▁防疫	-11.5146
▁恭喜	-11.5148
添	-11.5153
▁层层	-11.5153
▁报仇	-11.5154
▁甯	-11.5154
▁诲	-11.5155
嬷	-11.5158
▁打包	-11.516
▁亚博	-11.5162
▁万亿	-11.5163
▁长远	-11.5163
穹	-11.5163
▁打着	-11.5164
▁答复	-11.5165
▁空白	-11.5166
▁班主任	-11.5166
▁弥漫	-11.5167
▁開始	-11.5168
▁三亚	-11.5171
▁撩	-11.5171
▁重伤	-11.5172
▁福建省	-11.5175
▁蜘蛛	-11.5175
▁晚餐	-11.5176
▁天道	-11.5176
▁购置	-11.5177
▁决不	-11.5178
▁國家	-11.518
15	-11.518
萧	-11.5181
▁驶	-11.5183
ate	-11.5188
▁衡量	-11.519
迁	-11.5193
找	-11.5196
▁剧本	-11.5196
▁ST	-11.5196
▁小事	-11.5196
操作	-11.5197
▁接入	-11.5198
▁北大	-11.5201
▁打了个	-11.5202
▁Windows	-11.5203
▁绝大多数	-11.5204
▁小人	-11.5207
son	-11.5207
清楚	-11.5208
▁简洁	-11.521
化作	-11.521
▁贯穿	-11.5212
▁日讯	-11.5215
▁用手	-11.5215
▁高空	-11.5219
避免	-11.5219
耶	-11.522
▁纷	-11.5221
▁意向	-11.5222
忓	-11.5225
▁大臣	-11.5226
▁执业	-11.5226
▁力争	-11.5226
▁腐败	-11.5227
▁宿	-11.5227
▁屈	-11.5227
▁前所未	-11.5227
勿	-11.5228
▁神仙	-11.5228
▁杆	-11.5232
▁本期	-11.5234
▁洛克	-11.5234
饮	-11.5234
▁暮	-11.5235
▁一如	-11.5236
▁竖	-11.5241
▁18618	-11.5247
▁行使	-11.5247
▁宁夏	-11.5247
琼	-11.5248
ill	-11.5249
▁批量	-11.5251
▁晚饭	-11.5253
▁师资	-11.5253
▁诊疗	-11.5253
较	-11.5254
le	-11.5259
领导	-11.526
▁工夫	-11.526
▁重庆市	-11.5261
▁蕴含	-11.5262
▁372.59	-11.5264
皇冠	-11.5267
瘤	-11.5272
▁单车	-11.5274
▁灾难	-11.5275
绕	-11.5276
▁高等教育	-11.5276
▁大殿	-11.5277
文明	-11.5277
斯特	-11.5277
▁骷髅	-11.5278
未曾	-11.5279
▁經濟	-11.5285
竭	-11.5288
篮	-11.5289
▁糖果	-11.529
▁大半	-11.529
▁出自	-11.5291
ol	-11.5293
2.5	-11.5298
场所	-11.5299
总经理	-11.53
▁Android	-11.53
▁窗帘	-11.53
▁枕	-11.5303
▁终极	-11.5303
▁候	-11.5306
▁周天	-11.5306
戜	-11.5307
▁射击	-11.5307
▁着色	-11.5308
▁金牌	-11.5309
▁亚马逊	-11.5309
▁艰苦	-11.5311
▁海拔	-11.5313
▁远方	-11.5315
▁参照	-11.5315
霾	-11.5315
用户	-11.5316
陋	-11.5318
▁下班	-11.532
▁幽默	-11.5324
▁不容	-11.5324
▁并购	-11.5324
▁阅	-11.5325
▁玻	-11.5325
▁打败	-11.5326
▁沉淀	-11.5329
▁这会	-11.533
▁负债	-11.5331
▁复工	-11.5334
▁鼠标	-11.5334
▁汽油	-11.5334
焦	-11.5334
▁严峻	-11.5335
▁残疾人	-11.5336
▁灿烂	-11.5336
▁游玩	-11.5338
鲜	-11.5338
▁牢	-11.5339
▁匕	-11.534
▁大桥	-11.534
▁赞助	-11.534
▁放出	-11.5342
▁柄	-11.5343
▁酱	-11.5344
▁完整性	-11.5345
喻	-11.5345
▁紫外	-11.5347
麽	-11.5348
▁黑衣	-11.5352
彻	-11.5353
肆	-11.5354
▁稳步	-11.5354
着头	-11.5355
▁新西兰	-11.5356
▁这名	-11.5356
▁枚	-11.5356
并	-11.5357
▁另行	-11.5357
▁海水	-11.5357
▁验	-11.5358
▁苏宁	-11.5361
▁发光	-11.5362
鎶	-11.5363
▁传动	-11.5364
职责	-11.5364
▁乾	-11.5367
▁想像	-11.5367
▁洽谈	-11.5372
▁这张	-11.5372
▁boss	-11.5374
▁脆弱	-11.5376
▁茅台	-11.5377
▁隨	-11.5378
▁一见	-11.538
▁坚信	-11.5381
▁素材	-11.5383
竞	-11.5383
▁話	-11.5383
鏍	-11.5383
▁阶	-11.5383
▁分级	-11.5384
▁钉	-11.5385
摊	-11.5385
▁幺	-11.5386
▁搬迁	-11.5389
▁超声	-11.5391
▁纠缠	-11.5393
▁还款	-11.5394
▁月光	-11.5394
▁輕	-11.5396
▁铅	-11.5396
▁花钱	-11.5399
鏈	-11.5399
棉	-11.5402
▁水电	-11.5405
▁孵化	-11.5406
▁91	-11.5408
▁星星	-11.5408
▁奖项	-11.5409
锤	-11.5411
▁大局	-11.5413
▁数控	-11.5414
▁光电	-11.5415
梨	-11.5416
葬	-11.5417
▁大都	-11.542
▁汉语	-11.542
贺	-11.542
▁61	-11.5422
▁打听	-11.5424
▁博彩	-11.5426
▁被告	-11.5426
▁狄	-11.5426
▁逃跑	-11.5426
▁楼下	-11.543
▁奥运	-11.5431
漫	-11.5431
▁强迫	-11.5432
▁傲	-11.5433
▁商会	-11.5436
艾	-11.5436
▁繁华	-11.5438
覆	-11.5441
▁拍了拍	-11.5441
▁猪肉	-11.5442
▁聚合	-11.5443
▁绗	-11.5443
骏	-11.5445
▁中美	-11.5449
▁客运	-11.5451
▁陡然	-11.5453
御	-11.5453
▁邦	-11.5453
▁入门	-11.5454
茵	-11.5454
▁高血压	-11.5459
疆	-11.5462
▁钢板	-11.5462
▁卵	-11.5465
▁BOSS	-11.5465
▁倪	-11.5468
晒	-11.5471
广告	-11.5472
挺	-11.5474
▁陈述	-11.548
▁实业	-11.5482
▁功法	-11.5483
空气	-11.5484
▁鼎	-11.5486
▁强力	-11.5486
27	-11.5488
ent	-11.5488
新网	-11.5489
▁罩	-11.5489
▁搜寻	-11.5491
咦	-11.5497
▁摆在	-11.5499
▁倡议	-11.55
▁奥迪	-11.5502
论坛	-11.5503
▁壁	-11.5504
▁扁	-11.5504
▁三官	-11.5505
▁一贯	-11.5506
佺	-11.5506
▁降临	-11.5507
▁拎	-11.5511
甘	-11.5514
▁迟疑	-11.5514
閮	-11.5516
▁城里	-11.5519
小时	-11.5522
斯拉	-11.5523
ie	-11.5524
▁山谷	-11.5525
▁约翰	-11.5526
▁大盘	-11.5526
总裁	-11.5527
▁卸	-11.5528
▁搁	-11.5528
▁萃取	-11.5529
▁老化	-11.553
▁心意	-11.5536
▁定向	-11.5541
迟	-11.5542
▁堪称	-11.5544
▁占领	-11.5545
▁搞笑	-11.5546
▁童年	-11.5548
▁衔接	-11.5549
▁這些	-11.555
▁阻挡	-11.555
▁艳	-11.5551
媒体	-11.5551
▁卫浴	-11.5553
焕	-11.5558
劧	-11.5559
▁合资	-11.556
▁已經	-11.5564
▁快感	-11.5565
▁专卖	-11.5566
▁揪	-11.5566
▁Co	-11.5567
违	-11.5569
視	-11.5569
占	-11.5571
▁周五	-11.5572
▁西瓜	-11.5575
▁务实	-11.5576
ang	-11.5577
▁好人	-11.558
▁妮	-11.5581
弓	-11.5586
▁惯	-11.5587
▁漫长	-11.5588
▁指向	-11.5589
▁这群	-11.5589
硕	-11.5589
▁達	-11.559
▁暗自	-11.5591
誓	-11.5591
▁肠	-11.5595
▁點	-11.5595
名单	-11.5596
▁眼角	-11.5597
▁尘	-11.56
▁酥	-11.5601
▁白玉	-11.5605
▁湿度	-11.5606
棍	-11.5606
▁发电机	-11.5607
▁擅自	-11.5607
um	-11.5608
侃	-11.5609
颤	-11.561
▁调解	-11.5612
▁轩	-11.5612
▁拂	-11.5614
▁汇总	-11.5614
▁挠	-11.562
▁一听	-11.562
▁复古	-11.5621
肖	-11.5623
▁约会	-11.5629
▁神圣	-11.5631
酷	-11.5632
▁石化	-11.5632
▁衬	-11.5633
▁燃油	-11.5634
▁仔	-11.5635
附	-11.5639
▁智力	-11.5642
報	-11.5644
▁青山	-11.5645
▁耗	-11.5648
农业	-11.565
▁壳	-11.5651
▁清华大学	-11.5653
▁漆黑	-11.5654
▁美景	-11.5656
改委	-11.5658
电视	-11.5661
▁专辑	-11.5664
辣	-11.5665
嫂	-11.5666
▁一回	-11.5667
71	-11.567
▁扬州	-11.567
拿	-11.5672
编辑	-11.5672
▁逾期	-11.5673
▁爷	-11.5675
▁區	-11.5675
▁筹备	-11.5676
內	-11.5677
▁硬度	-11.5678
▁美國	-11.5678
▁领悟	-11.5681
▁瑜伽	-11.5683
▁标记	-11.5688
▁官兵	-11.5694
翎	-11.5694
▁反射	-11.5697
▁做人	-11.5698
47	-11.5699
▁之气	-11.5703
▁海口	-11.5705
▁不经	-11.5707
▁所述	-11.5708
▁投影	-11.5714
▁用电	-11.5715
▁春秋	-11.5715
▁熱	-11.5716
▁违背	-11.5719
▁芙	-11.5724
▁增值税	-11.5725
▁解说	-11.5726
▁国企	-11.5728
▁书画	-11.5729
秩序	-11.5729
選	-11.573
扑	-11.5732
▁起码	-11.5734
▁关上	-11.5734
▁面容	-11.5734
▁修理	-11.5735
▁洁净	-11.5736
▁午餐	-11.5738
▁感悟	-11.5745
▁排行	-11.5746
▁太平洋	-11.5749
est	-11.5749
▁咬牙	-11.5749
▁测定	-11.575
▁辅	-11.5752
▁急性	-11.5754
▁护照	-11.5754
▁焦急	-11.5754
▁学期	-11.5755
紒	-11.5756
阔	-11.5756
不开	-11.5756
▁生机	-11.5758
加工	-11.5762
安排	-11.5763
滆	-11.5766
▁1978	-11.5766
▁公孙	-11.5768
▁做爱	-11.577
▁游乐	-11.5773
▁net	-11.578
▁手艺	-11.5783
▁四是	-11.5783
▁持股	-11.5786
▁蒂	-11.5786
▁新城	-11.5786
▁投資	-11.5788
▁烈	-11.5789
▁商业银行	-11.5789
墓	-11.5791
▁邮寄	-11.5791
▁地毯	-11.5794
▁0.1	-11.5797
湅	-11.5798
▁边境	-11.5799
▁残酷	-11.5801
▁液晶	-11.5804
▁至上	-11.5805
▁詹姆斯	-11.5806
▁废话	-11.5806
▁音频	-11.581
▁花生	-11.5812
▁徒弟	-11.5813
▁圭	-11.5813
辱	-11.5814
▁符号	-11.5816
▁Facebook	-11.5818
炭	-11.5822
不去	-11.5824
变化	-11.5826
▁七八	-11.5827
▁变速	-11.5828
▁源头	-11.5832
▁买入	-11.5833
▁海报	-11.5834
▁援	-11.5835
箣	-11.5835
▁降温	-11.5836
▁签字	-11.584
禄	-11.584
高兴	-11.5841
▁空军	-11.5842
▁复活	-11.5845
▁沿海	-11.5846
蕊	-11.5848
▁炼制	-11.5848
▁议论	-11.585
▁强国	-11.585
▁王府	-11.5851
▁怀特	-11.5852
▁咽	-11.5855
▁齿轮	-11.5857
▁动能	-11.5857
類	-11.586
▁皮带	-11.5861
▁栽	-11.5861
▁被子	-11.5861
▁下半	-11.5863
▁莲花	-11.5863
调查	-11.5864
随	-11.5865
▁設備	-11.5866
▁龚	-11.5866
▁浑	-11.5866
▁中医药	-11.5868
▁徒	-11.587
eg	-11.5871
▁气味	-11.5876
▁浓厚	-11.5879
革命	-11.5885
煜	-11.5885
胀	-11.5888
却	-11.5889
▁树木	-11.5893
▁理智	-11.5894
▁武士	-11.5896
▁阀	-11.5897
▁畅通	-11.5899
▁丛	-11.59
▁宽松	-11.59
▁PM	-11.5903
▁万余	-11.5903
▁瞒	-11.5905
▁服从	-11.5907
▁王朝	-11.5907
▁娴	-11.5908
▁常委	-11.5909
▁繃	-11.5911
▁供水	-11.5911
▁随身	-11.5912
▁说服	-11.5914
▁尺度	-11.5915
▁生產	-11.5915
▁骨头	-11.5917
ml	-11.592
▁图纸	-11.5921
▁氢	-11.5924
▁巧克力	-11.5928
▁屋顶	-11.5931
▁三月	-11.5932
▁瞅	-11.5937
32	-11.5938
▁平民	-11.5941
▁副局	-11.5941
▁四面	-11.5942
廉	-11.5946
▁社团	-11.5946
保护	-11.5948
▁站长	-11.5949
▁试探	-11.595
▁路面	-11.5951
▁球场	-11.5953
▁发力	-11.5955
信箱	-11.5956
▁這樣	-11.5956
瑟	-11.5956
▁打架	-11.5956
▁确立	-11.5957
▁隐约	-11.5962
专业	-11.5962
▁有无	-11.5964
▁连带	-11.5966
幓	-11.5967
▁秋季	-11.5969
▁郑重	-11.5969
庝	-11.5971
▁纠正	-11.5973
▁无不	-11.5977
▁斗志	-11.5979
▁何处	-11.5979
▁诠释	-11.5982
晟	-11.5982
因素	-11.5983
▁捕捉	-11.5984
▁定时	-11.599
慈	-11.5993
▁仲	-11.5997
▁67	-11.5998
▁警示	-11.5999
▁活泼	-11.6003
噷	-11.6003
▁虞	-11.6005
巴掌	-11.6006
▁深夜	-11.6007
▁景色	-11.6008
▁躲避	-11.6009
▁環境	-11.6009
▁抗议	-11.6011
新闻	-11.6011
and	-11.6015
▁玩意	-11.6015
▁cm	-11.6019
战争	-11.6019
奕	-11.602
左右	-11.6023
投资	-11.6023
全国	-11.6025
▁弦	-11.6028
绾	-11.603
▁巨人	-11.6031
嫁	-11.6031
偿	-11.6032
▁诗歌	-11.6033
▁線	-11.6034
▁行事	-11.6034
▁凭证	-11.6034
▁纵横	-11.6037
酱	-11.6039
坞	-11.6039
▁約	-11.6044
▁代谢	-11.6044
▁网红	-11.6045
▁万多	-11.6046
▁商贸	-11.6053
吟	-11.6055
▁工地	-11.6057
▁化学品	-11.6057
▁与会	-11.6058
丑	-11.606
抛弃	-11.6064
▁从容	-11.6066
▁交谈	-11.6067
▁奈	-11.6068
▁枝	-11.6069
▁督查	-11.607
▁歧视	-11.607
▁函	-11.6074
喊	-11.6077
▁人马	-11.6082
▁性爱	-11.6082
力量	-11.6083
▁用人单位	-11.6083
▁客戶	-11.6086
▁封锁	-11.6089
▁教育局	-11.6089
▁占用	-11.609
人口	-11.6091
▁奇异	-11.6095
▁合金材料	-11.6095
▁噗	-11.6098
▁君子	-11.6098
肢	-11.6098
群众	-11.6101
▁电网	-11.6104
丛	-11.6107
▁大神	-11.6108
▁前世	-11.6112
▁專	-11.6114
▁小妹	-11.6116
译	-11.6119
▁昌	-11.612
▁城墙	-11.6121
▁加班	-11.6122
▁丰田	-11.6122
穆	-11.6124
▁滴滴	-11.6127
應	-11.6128
▁怒火	-11.6129
▁泉	-11.6131
侍	-11.6131
▁卖出	-11.6133
▁无辜	-11.6135
▁桂林	-11.6137
▁拿来	-11.6137
▁br	-11.6138
仕	-11.6138
▁炫	-11.6141
滋	-11.6143
▁二十年	-11.6144
▁慎重	-11.6148
▁愁	-11.6151
▁外语	-11.6152
▁那双	-11.6153
▁林业	-11.6155
旋	-11.616
▁包容	-11.6162
ong	-11.6164
▁私募	-11.6164
▁合力	-11.6169
號	-11.6169
▁烟台	-11.6173
▁删	-11.6173
利于	-11.6173
▁流转	-11.6174
▁蒲	-11.6175
▁下行	-11.6175
▁東	-11.6178
▁之道	-11.6178
▁家门	-11.6178
▁鞭	-11.6179
▁隐瞒	-11.6181
▁手脚	-11.6185
▁詹	-11.6187
▁绮	-11.6189
绪	-11.6191
▁唱歌	-11.6193
▁恭	-11.6197
▁诸位	-11.6198
▁乳腺	-11.6198
▁海鲜	-11.6198
再	-11.6199
▁为首	-11.62
锡	-11.6202
▁垄断	-11.6205
镑	-11.6206
▁样式	-11.6207
▁三维	-11.6212
▁凄	-11.6212
▁司令	-11.6212
▁The	-11.6213
要说	-11.6214
▁序	-11.6214
▁城堡	-11.6214
▁本月	-11.6216
▁嗤	-11.6219
▁奴	-11.6222
▁真理	-11.6223
▁亲近	-11.6224
▁孙子	-11.6224
教授	-11.6225
▁相遇	-11.6227
▁麦克	-11.6228
▁山区	-11.6228
▁地形	-11.6229
▁帐号	-11.623
▁本市	-11.6233
▁笔记	-11.6234
▁亚太	-11.6236
▁盼	-11.6237
▁弧	-11.6237
迭	-11.624
25	-11.624
▁盈	-11.624
▁发型	-11.6241
▁法制	-11.6244
▁丝袜	-11.6245
▁名牌	-11.6246
▁分局	-11.6247
▁致使	-11.6248
▁灰尘	-11.6249
▁霸道	-11.6249
▁常州	-11.6251
▁保卫	-11.6252
▁見	-11.6255
监	-11.6257
▁梨	-11.6258
▁同情	-11.6259
植	-11.6262
▁資訊	-11.6262
▁南宁	-11.6264
▁變	-11.6268
陙	-11.6268
▁深层	-11.6269
▁洗手	-11.627
▁大幅度	-11.6274
▁老鼠	-11.6274
▁勇于	-11.6276
▁喉咙	-11.6276
▁昂	-11.6278
▁薇	-11.6279
▁步入	-11.628
委员会	-11.6283
▁打死	-11.6283
兒	-11.6283
▁精细	-11.6289
▁礼貌	-11.6291
▁往来	-11.6291
▁html	-11.6292
▁磨损	-11.6293
牐	-11.6293
▁分身	-11.6293
▁代言	-11.6294
▁分支	-11.6294
▁传闻	-11.6299
佐	-11.6299
▁影響	-11.6303
▁器官	-11.6304
菑	-11.6307
▁城中	-11.6314
▁原作	-11.6316
▁舵	-11.6317
环节	-11.6317
▁绘	-11.6321
▁哒	-11.6322
▁归来	-11.6323
▁有效期	-11.6323
▁菩提	-11.6325
瓷	-11.6325
院校	-11.6326
64.71	-11.6328
▁哪有	-11.6328
▁出声	-11.6328
乃	-11.6334
▁礼仪	-11.6335
▁蜂蜜	-11.6336
铝	-11.6337
▁销售额	-11.6339
▁护栏	-11.6341
▁eg	-11.6341
▁媒介	-11.6341
▁分工	-11.6342
▁独孤	-11.6342
▁永不	-11.6344
60	-11.6345
▁印尼	-11.6345
霳	-11.6346
▁殊	-11.6348
800	-11.635
▁圣人	-11.635
欐	-11.6352
强度	-11.6355
▁高贵	-11.6359
▁衬衫	-11.6359
▁间隔	-11.636
▁制服	-11.6361
ut	-11.6361
▁成年	-11.6362
煞	-11.6362
▁不耐	-11.6363
▁现行	-11.6364
▁带回	-11.6364
01	-11.6365
▁光泽	-11.6366
▁基督	-11.6368
▁翻身	-11.6369
贯	-11.6369
▁规章	-11.637
▁69	-11.6372
▁踏上	-11.6374
▁溶解	-11.6374
嗘	-11.6377
▁元件	-11.6378
▁过滤器	-11.6379
对手	-11.638
翰	-11.638
▁一汽	-11.6383
淋	-11.6385
郊	-11.6391
▁96	-11.6393
睛	-11.6394
▁自豪	-11.6394
▁樊	-11.6396
▁东海	-11.6396
▁近年	-11.6399
▁校友	-11.6399
栦	-11.64
貜	-11.6401
▁大王	-11.6403
▁百里	-11.6404
伙	-11.6406
钰	-11.6406
哀	-11.6409
03.26	-11.641
州市	-11.641
▁细分	-11.6412
乏	-11.6413
▁鼠	-11.6415
▁营运	-11.6416
▁大有	-11.6417
▁锡	-11.6417
▁暑假	-11.6421
▁邮政	-11.6423
嬩	-11.6423
▁运送	-11.6424
▁至关重	-11.6425
▁为期	-11.6426
▁沙特	-11.6426
▁前途	-11.6429
▁YCl	-11.643
▁总局	-11.6431
故事	-11.6435
胡	-11.6436
▁140	-11.6436
▁天津市	-11.6437
▁楼上	-11.6437
▁微生物	-11.6439
▁黑衣人	-11.6441
▁阎	-11.6442
▁债权	-11.6444
▁纳米	-11.6445
▁矿山	-11.6446
▁使劲	-11.6446
▁真假	-11.6446
柯	-11.6446
▁西装	-11.6447
▁手续费	-11.6449
认识	-11.6449
天下	-11.645
os	-11.645
得好	-11.6452
IN	-11.6452
lo	-11.6452
to	-11.6454
▁服务员	-11.6455
▁安宁	-11.6456
▁徐州	-11.6456
申	-11.6457
▁沉思	-11.6457
谋划	-11.6459
▁陌	-11.6463
▁水上	-11.6466
▁阴谋	-11.6468
▁樱	-11.6469
增加	-11.647
▁蒙古	-11.6471
▁直观	-11.6471
哉	-11.6473
△	-11.6475
合物	-11.6475
▁灵感	-11.6476
工委	-11.6477
▁屡	-11.6478
▁孔子	-11.648
▁濡	-11.6481
▁爱人	-11.6483
▁置业	-11.6484
▁样本	-11.6488
▁拍拍	-11.6488
怜	-11.6489
▁海底	-11.649
▁肉体	-11.6491
▁起源	-11.6491
▁溶	-11.6492
▁台中	-11.6492
.9	-11.6492
铮	-11.6494
.4	-11.6497
▁那名	-11.6498
鎰	-11.65
▁家装	-11.65
▁负荷	-11.6501
▁有过	-11.6501
碱	-11.6502
▁噢	-11.6504
▁地带	-11.6506
▁审美	-11.6507
▁安防	-11.6508
抵	-11.6508
▁花卉	-11.6509
▁战役	-11.651
▁指点	-11.6513
▁回事	-11.6516
▁1996	-11.6517
▁锐	-11.6519
▁劣	-11.652
▁征集	-11.6521
▁无视	-11.6523
人心	-11.6525
▁谎	-11.6527
谊	-11.6529
废	-11.653
▁打个	-11.653
▁選	-11.6532
▁异地	-11.6533
▁树林	-11.6533
坚	-11.6535
▁遥远	-11.6535
▁咆哮	-11.6536
.8	-11.6537
▁陕西省	-11.6539
▁国籍	-11.654
▁仲裁	-11.654
标注	-11.6543
▁同等	-11.655
▁香气	-11.655
▁百货	-11.655
懒	-11.6553
▁自称	-11.6556
肤	-11.6558
▁心动	-11.6559
務	-11.6559
▁凸显	-11.6559
▁Re	-11.6559
不说	-11.656
织	-11.6561
速度	-11.6563
▁闸	-11.6563
▁绯	-11.6564
▁右侧	-11.6565
居民	-11.6566
▁法庭	-11.6566
▁万分	-11.6569
▁隔壁	-11.6569
▁火星	-11.6572
▁左边	-11.6574
▁數	-11.6575
▁中文网	-11.6577
所致	-11.6578
▁当选	-11.6579
遗产	-11.6579
▁項目	-11.6581
▁自负	-11.6581
▁搬运	-11.6582
▁怪异	-11.6584
▁麒麟	-11.6587
▁師	-11.6588
▁書	-11.6588
▁岩石	-11.659
▁会展	-11.6591
▁光辉	-11.6591
▁送达	-11.6592
▁内置	-11.6592
芽	-11.6593
▁中毒	-11.6594
▁起伏	-11.6595
▁流失	-11.6595
▁76	-11.6595
之地	-11.6597
▁辞职	-11.6597
▁整车	-11.6598
ユ	-11.6598
▁以防	-11.6599
▁跟上	-11.66
▁铲	-11.6601
▁蚂蚁	-11.6602
▁一变	-11.6605
烨	-11.6606
▁天龙	-11.6607
▁枫	-11.6608
壶	-11.6608
▁万里	-11.6612
▁控制器	-11.6614
联系	-11.6614
▁口水	-11.6617
▁行人	-11.6623
▁圖	-11.6623
▁疲	-11.6625
▁油价	-11.6625
坪	-11.6625
▁疑似	-11.6626
風	-11.6626
▁站立	-11.6627
戠	-11.6627
▁戚	-11.6633
▁昏迷	-11.6633
▁组装	-11.6636
ER	-11.6637
▁租车	-11.6637
▁侧面	-11.6637
▁忠	-11.6639
严重	-11.6639
▁歌词	-11.6639
▁鶴	-11.664
肺	-11.6641
▁3.5	-11.6641
▁娜	-11.6643
克斯	-11.6645
▁煤矿	-11.6645
▁葱	-11.6648
▁油漆	-11.6648
忘	-11.6653
▁镧系	-11.6655
園	-11.6658
▁桃园	-11.6658
▁离心	-11.6659
▁非凡	-11.6659
▁整天	-11.666
▁腐	-11.6661
▁点点	-11.6661
▁胤	-11.6661
▁朴	-11.6662
GB	-11.6663
▁尺	-11.6663
▁阻力	-11.6664
58.59	-11.6665
▁宫殿	-11.6669
▁13477	-11.6672
ㄦ	-11.6672
▁多万	-11.6673
▁斗地	-11.6673
▁吕布	-11.6674
產	-11.6676
▁锌	-11.6676
崖	-11.6676
▁剖析	-11.6677
▁托管	-11.6678
▁好感	-11.668
秦	-11.6683
▁名额	-11.6685
▁保罗	-11.6687
鬟	-11.6688
▁圆形	-11.6688
▁寨	-11.669
虘	-11.6691
就是	-11.6692
▁四方	-11.6693
▁稳健	-11.6697
▁新颖	-11.6702
300	-11.6702
珊	-11.671
▁魔力	-11.6711
▁残留	-11.6712
析	-11.6713
▁關	-11.6713
效果	-11.6714
▁神彩	-11.6714
▁军官	-11.6714
▁合作社	-11.6716
▁體	-11.6718
▁门诊	-11.6721
▁理工	-11.6724
▁魔王	-11.6732
▁毒品	-11.6732
▁嘶	-11.6733
▁晚间	-11.6733
▁卫视	-11.6735
▁便会	-11.6735
▁微米	-11.6736
▁私下	-11.6736
优势	-11.6737
▁郁	-11.6738
▁青龙	-11.6739
▁處理	-11.6739
▁昆	-11.6739
▁头疼	-11.6739
▁嶄	-11.6742
▁沉浸	-11.6743
颂	-11.6743
▁充分利用	-11.6745
▁墨西哥	-11.6749
▁桩	-11.675
▁征服	-11.6751
▁惊恐	-11.6751
▁盲	-11.6753
▁II	-11.6759
师范大学	-11.6759
皓	-11.6762
▁哲	-11.6762
▁耽误	-11.6763
▁万年	-11.6764
▁情況	-11.6767
▁沉吟	-11.6768
▁本赛	-11.6769
醋	-11.677
电池	-11.6771
▁雨水	-11.6771
▁农药	-11.6773
虑	-11.6773
▁制约	-11.6774
又	-11.6774
費	-11.6774
▁趣	-11.6774
▁管理制度	-11.6775
▁剑气	-11.6776
▁本报	-11.6777
▁边界	-11.6778
500	-11.6778
遗址	-11.6778
▁援助	-11.6779
▁懒得	-11.678
▁ng	-11.6781
▁几千	-11.6781
▁瑞典	-11.6781
▁名声	-11.6782
▁父子	-11.6782
▁餐桌	-11.6784
▁鍛	-11.6785
▁束缚	-11.6786
▁埃及	-11.6789
▁号召	-11.6791
▁联合会	-11.6794
ist	-11.6794
▁流浪	-11.6796
▁过得	-11.6798
▁妇人	-11.6804
▁直升机	-11.6805
▁诚实	-11.6807
oo	-11.6808
▁堵塞	-11.6809
▁话音	-11.681
▁充实	-11.6811
▁两道	-11.6812
▁钢筋	-11.6812
▁如来	-11.6813
棠	-11.6816
悔	-11.6817
▁坎	-11.6818
嗭	-11.6818
▁背着	-11.6825
▁堡	-11.6827
▁赶来	-11.6827
▁亲手	-11.6828
▁發現	-11.6829
吨	-11.6829
仆	-11.6829
▁洗涤	-11.683
▁像素	-11.6831
▁平行	-11.6831
▁求助	-11.6834
▁還是	-11.6836
简单	-11.6836
犲	-11.6836
▁效	-11.6838
▁翼	-11.684
奉	-11.6844
▁调理	-11.6847
▁息	-11.6848
▁更多	-11.6848
▁舍不得	-11.6848
▁早日	-11.6849
▁清仓	-11.6853
▁竞价	-11.6857
▁字体	-11.6859
▁坐标	-11.686
▁预告	-11.686
▁二楼	-11.6862
ri	-11.6862
一起	-11.6863
▁缝	-11.6863
亯	-11.6864
義	-11.6866
.5	-11.6867
危	-11.6871
細	-11.6873
▁儿女	-11.6874
▁忍受	-11.6875
色球	-11.6876
▁元气	-11.6877
▁深渊	-11.6878
耍	-11.6881
▁嫉妒	-11.6881
▁瞄准	-11.6882
▁描绘	-11.6884
▁旅馆	-11.6886
▁折叠	-11.6886
單	-11.6887
▁剥	-11.6888
▁倒霉	-11.6889
文学	-11.6889
▁裂缝	-11.6891
▁督	-11.6893
▁小手	-11.6896
pe	-11.6898
损失	-11.69
被	-11.6904
▁函数	-11.6904
澈	-11.6905
彩票	-11.6906
▁遥控	-11.6907
▁精液	-11.6907
▁350	-11.6908
▁多媒体	-11.6909
▁狼狈	-11.6912
惨	-11.6913
▁失落	-11.6913
▁音响	-11.6913
尧	-11.6914
▁连线	-11.6918
▁实名	-11.6922
▁辣椒	-11.6923
▁耀眼	-11.6924
▁水景	-11.6925
鏋	-11.6925
▁名片	-11.6925
▁直属	-11.6926
帘	-11.6929
▁上车	-11.6932
▁检举	-11.6932
▁遏	-11.6933
▁yY	-11.6933
▁汗水	-11.6936
勋	-11.6939
献	-11.6939
▁族人	-11.6942
吐	-11.6943
▁小麦	-11.6945
▁吓了一	-11.6945
孟	-11.6946
▁纯净	-11.6948
▁聽	-11.6948
一体	-11.6949
▁坚固	-11.695
▁弯曲	-11.6951
▁丝绸	-11.6954
▁眼见	-11.6954
▁貌似	-11.6955
龕	-11.6958
▁淡然	-11.6958
医学	-11.696
▁反思	-11.696
▁女主	-11.696
▁时段	-11.6962
▁监理	-11.6962
▁高位	-11.6966
▁一键	-11.6971
▁登山	-11.6971
▁过往	-11.6972
▁火山	-11.6974
蜂	-11.6976
捧	-11.6976
89.32	-11.6978
▁不动产	-11.6979
▁演练	-11.698
▁韧	-11.6981
生病	-11.6981
鍜	-11.6982
▁阿根廷	-11.6983
▁尤为	-11.6983
▁洗衣机	-11.6983
好了	-11.6984
▁立方	-11.6984
▁宽度	-11.6984
爸妈	-11.6985
▁词汇	-11.6987
▁元宝	-11.6987
▁没想	-11.699
▁早早	-11.699
▁泉州	-11.699
青年	-11.699
▁功德	-11.6992
▁停权	-11.6993
▁宣告	-11.6994
▁公务	-11.6995
▁限定	-11.6996
▁捕	-11.6997
▁國際	-11.6998
▁兔子	-11.6998
▁谜	-11.7002
▁首领	-11.7002
▁琛	-11.7003
▁满是	-11.7006
▁动人	-11.7007
▁瀑布	-11.7008
▁佣兵	-11.7009
▁借贷	-11.7009
▁着眼	-11.7009
教学	-11.7009
▁风采	-11.7012
▁很久	-11.7012
▁汇集	-11.7013
▁供货	-11.7013
▁叙利亚	-11.7015
纤维	-11.7015
▁提名	-11.7016
▁进出	-11.7016
▁处女	-11.7017
▁蒸发	-11.7017
▁路由	-11.7019
呆	-11.7019
◎	-11.7022
妖	-11.7022
顷	-11.7023
▁些许	-11.7024
奋	-11.7025
▁品类	-11.7027
▁北京大学	-11.7031
▁咨询服务	-11.7032
▁出事	-11.7032
▁爱上	-11.7033
▁跟前	-11.7036
▁议员	-11.7038
▁284.08	-11.7039
▁泽	-11.7039
▁一个多	-11.7039
参与	-11.7039
▁叉	-11.704
▁会见	-11.7041
▁没能	-11.7042
▁养老保险	-11.7047
▁上古	-11.7048
▁电阻	-11.7049
▁退还	-11.705
▁接地	-11.7053
成功	-11.7053
▁宴	-11.7054
▁植	-11.7054
▁高管	-11.7055
▁牛皮	-11.7056
▁一震	-11.7056
▁击中	-11.7056
▁十几年	-11.7058
民族	-11.7059
▁审理	-11.706
▁迅	-11.7061
文章	-11.7062
ine	-11.7063
▁美妙	-11.7064
▁奔跑	-11.7065
▁锤	-11.7068
▁仙人	-11.7069
▁220	-11.707
▁惊艳	-11.7074
太好	-11.7075
▁清华	-11.7075
▁获利	-11.7077
▁产后	-11.7077
▁精神力	-11.708
▁快播	-11.7083
尉	-11.7084
▁保湿	-11.7086
▁ヤ	-11.7087
哑	-11.7087
褰	-11.7088
▁坡	-11.7089
▁收货	-11.7089
▁秋天	-11.7091
▁敏捷	-11.7091
▁延迟	-11.7093
▁制止	-11.7093
▁腕	-11.7094
▁氧	-11.7095
▁矿物	-11.7096
▁师范	-11.7097
▁读取	-11.7097
▁化身	-11.7099
▁防晒	-11.7099
兔	-11.7099
▁充斥	-11.7099
▁稻	-11.71
▁那人	-11.7101
▁у	-11.7102
▁官方网	-11.7104
▁江西省	-11.7104
▁饱满	-11.7105
▁乾坤	-11.7105
▁傍晚	-11.7106
▁St	-11.7106
▁鍓	-11.7109
▁分会	-11.7114
▁米兰	-11.7117
▁1995	-11.7117
妞	-11.7118
▁入境	-11.7118
▁修真	-11.7119
▁值班	-11.712
▁nbsp	-11.712
▁伞	-11.7122
▁伺	-11.7123
▁sh	-11.7125
▁公分	-11.7126
▁路口	-11.7126
▁血腥	-11.7126
▁跑步	-11.7127
玥	-11.7127
▁货车	-11.7129
杈	-11.7131
▁想过	-11.7132
▁飞扬	-11.7133
▁一碗	-11.7134
▁上空	-11.7134
▁七年	-11.7135
▁民国	-11.7135
▁狗狗	-11.7136
▁嚣张	-11.7136
▁颗	-11.7139
▁缅甸	-11.714
▁冶金	-11.7146
自在	-11.7146
▁哈哈大	-11.7146
重要	-11.7151
▁強	-11.7152
▁展望	-11.7154
▁转账	-11.7155
▁国土	-11.7158
▁颁布	-11.7158
潭	-11.7159
▁适度	-11.7163
▁拆迁	-11.7165
部队	-11.7166
▁抿	-11.7167
▁录像	-11.7167
▁尽情	-11.7169
▁尝	-11.7171
▁隶属	-11.7174
▁甘心	-11.7174
▁姘	-11.7176
▁婆	-11.7177
▁几点	-11.7178
ow	-11.718
犹豫	-11.718
▁搜狐	-11.7181
▁姣	-11.7182
AN	-11.7184
▁认出	-11.7184
▁丰满	-11.7184
十岁	-11.7185
▁专线	-11.7185
▁支部	-11.7186
ee	-11.7188
▁两地	-11.7189
▁上游	-11.7189
回去	-11.719
▁禀	-11.7191
▁洗衣	-11.7191
梓	-11.7192
俱	-11.7192
▁弹簧	-11.7194
▁急救	-11.7195
▁原文	-11.7196
贫	-11.7196
昆	-11.7197
逛	-11.7198
▁数值	-11.7198
▁哈利	-11.7202
▁听听	-11.7204
返	-11.7207
▁指责	-11.7208
▁飙	-11.7208
▁猛烈	-11.7211
▁宇文	-11.7212
▁囚	-11.7213
招呼	-11.7214
婂	-11.7216
▁人民日报	-11.7217
姜	-11.7217
▁逢	-11.7218
▁树脂	-11.7218
▁执着	-11.722
▁中考	-11.722
▁放进	-11.7221
▁捕鱼	-11.7221
樂	-11.7223
▁尖锐	-11.7228
▁放假	-11.7229
▁肥胖	-11.723
▁慰问	-11.7232
▁寫	-11.7234
樻	-11.7234
備	-11.7234
▁CD	-11.724
▁兮	-11.724
器械	-11.7242
▁四肢	-11.7245
▁加深	-11.7245
▁动用	-11.7245
拓	-11.7245
鏁	-11.7245
骗	-11.7246
▁ag	-11.7246
▁有句	-11.7248
▁打通	-11.7248
▁恋	-11.7248
▁野生	-11.7248
▁乍	-11.7251
▁指甲	-11.7251
▁沙滩	-11.7252
▁思念	-11.7252
▁万博	-11.7252
▁祈	-11.7253
▁耶稣	-11.7254
▁不动	-11.7256
▁堆积	-11.7256
婿	-11.7257
▁瑕疵	-11.7257
▁史上	-11.7257
▁追问	-11.7258
▁63	-11.726
不时	-11.726
▁美白	-11.7261
▁烧烤	-11.7261
▁城门	-11.7264
▁妃	-11.7265
衰	-11.7265
▁番	-11.7266
▁疗效	-11.7268
▁风味	-11.7268
▁寂静	-11.7269
湘	-11.7269
▁建設	-11.7271
▁乳头	-11.7272
▁集装箱	-11.7272
▁绉	-11.7273
酿	-11.7273
卒	-11.7276
▁察	-11.7276
皆	-11.7276
▁灯具	-11.728
▁六十	-11.7281
▁晋江	-11.7281
裡	-11.7283
▁雷达	-11.7283
▁咖	-11.7285
▁打印机	-11.7286
▁营业执	-11.7286
萝	-11.7287
▁沐浴	-11.7287
ub	-11.7289
▁妇科	-11.7292
隙	-11.7293
▁1949	-11.7293
▁负载	-11.7293
▁限量	-11.7294
▁进门	-11.7298
▁中华民国	-11.73
▁台北市	-11.7301
▁2.2	-11.7301
▁下游	-11.7303
▁简化	-11.7303
困难	-11.7305
▁诉求	-11.7305
墠	-11.7306
▁印章	-11.7306
▁五一	-11.7306
▁虚弱	-11.7308
▁鲍	-11.7309
▁周六	-11.7309
▁ワ	-11.731
▁101	-11.7311
▁次日	-11.7312
▁是非	-11.7312
物质	-11.7314
運	-11.7318
▁水库	-11.7318
▁诸葛	-11.7319
∶	-11.732
漂	-11.7322
▁跌幅	-11.7322
▁立案	-11.7324
▁果实	-11.7326
▁填报	-11.7327
▁铸造	-11.7331
钙	-11.7332
觀	-11.7332
寅	-11.7332
▁玩笑	-11.7334
▁破产	-11.7336
▁星级	-11.7338
▁各式	-11.7338
惧	-11.734
▁湿地	-11.734
▁PE	-11.7341
私	-11.7341
▁同年	-11.7343
▁台阶	-11.7344
▁1992	-11.7344
▁涅	-11.7345
▁缴	-11.7346
墟	-11.7347
▁清风	-11.7349
以为	-11.735
城区	-11.7353
▁神识	-11.7355
栫	-11.7356
弗	-11.7356
▁叶枫	-11.7358
▁跨国	-11.736
▁太极	-11.736
合一	-11.7361
▁引来	-11.7361
▁琢磨	-11.7362
渍	-11.7362
▁民进	-11.7364
▁马路	-11.7364
▁刺客	-11.7365
▁推介	-11.7367
▁仅为	-11.7367
▁掌柜	-11.7368
▁AV	-11.7368
97	-11.7369
約	-11.7371
▁108	-11.7372
ue	-11.7372
▁土豆	-11.7374
▁专栏	-11.7375
▁一瓶	-11.7376
90	-11.7376
▁荆	-11.7377
▁社会保障	-11.7377
▁困惑	-11.7377
▁潜水	-11.738
巢	-11.7381
▁纲	-11.7383
▁右边	-11.7385
▁被告人	-11.7386
▁幕	-11.7387
▁不由自	-11.7389
冰冰	-11.739
▁做饭	-11.7391
规模	-11.7391
▁哎呀	-11.7394
▁背叛	-11.7395
▁悲剧	-11.7397
ch	-11.7398
▁怒吼	-11.7399
裝	-11.7399
▁壮大	-11.7399
▁建国	-11.74
▁揽	-11.7402
▁吉利	-11.7403
▁重心	-11.7405
▁惩	-11.7405
▁面孔	-11.7406
▁替换	-11.7408
▁众所周	-11.7408
▁多大	-11.7411
监管	-11.7411
▁幾	-11.7412
▁最有	-11.7413
83.29	-11.7416
▁13778	-11.7416
▁帝王	-11.7419
党委	-11.742
▁13769	-11.7421
▁春风	-11.7422
▁闻名	-11.7424
▁各省	-11.7424
瓣	-11.7424
都是	-11.7426
▁臂	-11.7429
▁366.32	-11.743
凶	-11.7431
▁EuCl	-11.7432
▁二十多	-11.7435
▁妄	-11.7438
▁什麼	-11.7441
▁公会	-11.7443
▁10035	-11.7444
95	-11.7445
87.36	-11.7445
▁天王	-11.7447
开放	-11.7449
▁中外	-11.7449
▁格会	-11.7449
▁网购	-11.745
▁冷汗	-11.7452
▁莎	-11.7452
教主	-11.7453
▁分割	-11.7455
▁环绕	-11.7458
络	-11.7459
題	-11.746
▁人流	-11.7461
▁特地	-11.7463
梍	-11.7464
▁悬挂	-11.7465
禅	-11.7466
▁相连	-11.7466
▁不出	-11.7467
▁聘用	-11.7467
▁恰好	-11.7468
▁葫芦	-11.7469
▁无机	-11.7471
窟	-11.7471
▁钛	-11.7473
领域	-11.7474
▁俏	-11.7475
▁伴侣	-11.7478
▁平淡	-11.7482
▁外来	-11.7482
▁覆	-11.7484
▁381.55	-11.7485
▁恨不	-11.7486
▁发扬	-11.7486
▁助攻	-11.7488
▁产地	-11.7489
▁白银	-11.749
▁这人	-11.7491
▁日内	-11.7491
▁磷	-11.7491
商标	-11.7491
▁异能	-11.7491
▁量身	-11.7494
▁多半	-11.7495
▁呗	-11.7495
▁古人	-11.7497
▁荧	-11.7497
▁分期	-11.7498
浴	-11.7499
▁茫然	-11.75
▁镀	-11.7501
▁神来	-11.7501
▁何以	-11.7501
▁钢材	-11.7501
▁学到	-11.7503
▁镁	-11.7505
▁天涯	-11.7505
▁杰克	-11.7508
楀	-11.7508
▁斯特	-11.7511
▁蹙	-11.7511
▁塑胶	-11.7511
▁冠状	-11.7514
判	-11.7514
▁炸弹	-11.7516
▁字母	-11.7516
ge	-11.7517
▁律	-11.7517
▁投保	-11.7523
▁深情	-11.7523
▁恼	-11.7523
▁越大	-11.7524
▁智库	-11.7527
▁一掌	-11.7527
▁脾	-11.7529
▁钩	-11.753
▁辰	-11.7531
▁观测	-11.7533
钉	-11.7533
▁欢呼	-11.7534
▁魔鬼	-11.7535
▁挑衅	-11.7535
▁晶体	-11.7535
▁給	-11.7537
▁华北	-11.7537
▁十月	-11.7539
▁1958	-11.7541
利率	-11.7541
▁废物	-11.7541
▁78	-11.7542
佽	-11.7543
▁真不	-11.7544
淫	-11.7544
75	-11.7544
▁餐馆	-11.7545
▁问答	-11.7546
演员	-11.7547
▁假日	-11.7551
▁下达	-11.7551
▁足足	-11.7552
▁喜剧	-11.7554
▁更能	-11.7554
凭	-11.7556
▁金山	-11.7556
生怕	-11.7556
▁去年同	-11.7557
▁河流	-11.7557
班子	-11.7559
乾	-11.756
睹	-11.7563
▁百合	-11.7564
art	-11.7564
▁不失	-11.7564
▁冷冻	-11.7565
▁杀气	-11.7565
▁恍然	-11.7566
▁云南省	-11.7567
▁富贵	-11.7569
貨	-11.7569
▁凹	-11.7569
▁学问	-11.7573
▁剧中	-11.7579
祝	-11.758
▁治安	-11.7581
通知	-11.7582
▁湖人	-11.7583
雀	-11.7584
▁新版	-11.7585
▁厌恶	-11.7585
必要	-11.7587
杨	-11.7587
03	-11.7591
▁主义	-11.7591
▁法兰	-11.7591
▁不惜	-11.7592
坝	-11.7592
▁光荣	-11.7593
▁源自	-11.7597
▁力求	-11.7597
▁第二届	-11.7598
弯	-11.7598
▁演技	-11.7599
ti	-11.76
▁骇	-11.7602
▁市场份额	-11.7603
▁隐形	-11.7603
▁滑雪	-11.7604
昕	-11.7607
▁钓	-11.7608
▁视听	-11.7611
▁计较	-11.7613
600	-11.7615
▁传授	-11.7616
▁杏	-11.7616
▁季度	-11.7617
▁超大	-11.7618
坦	-11.7619
毕业	-11.762
▁农户	-11.7623
▁换上	-11.7624
▁金银	-11.7628
▁亲身	-11.7629
▁压迫	-11.763
▁两眼	-11.763
▁參	-11.7631
▁没多	-11.7632
▁区内	-11.7633
▁茂	-11.7633
现场	-11.7634
▁焚	-11.7634
一样	-11.7635
扯	-11.7635
▁平方	-11.7637
▁效能	-11.7641
会计师	-11.7642
▁脆	-11.7646
▁海岸	-11.7647
▁联通	-11.7648
形式	-11.7651
▁否定	-11.7652
強	-11.7654
▁電子	-11.7664
╁	-11.7665
▁吸烟	-11.7667
空调	-11.7668
▁移植	-11.7672
▁双向	-11.7674
▁略有	-11.7674
▁所有权	-11.7677
▁支架	-11.7677
▁骚扰	-11.768
▁党政	-11.7681
▁汽	-11.7682
▁樺	-11.7683
▁颜值	-11.7683
▁梅花	-11.7684
▁打下	-11.7685
▁出品	-11.7685
▁坟	-11.7686
▁坚硬	-11.7686
▁套房	-11.7688
▁摧毁	-11.7688
▁巴士	-11.7689
女士	-11.7692
▁果断	-11.7692
▁惠州	-11.7692
▁OK	-11.7694
▁背包	-11.7696
▁训	-11.7699
尿	-11.77
▁七月	-11.7701
感谢	-11.7703
▁适时	-11.7704
勯	-11.7705
▁血色	-11.7707
▁不法	-11.7707
▁召	-11.7709
▁冲洗	-11.7711
任务	-11.7713
▁往下	-11.7713
▁接头	-11.7713
▁压缩机	-11.7713
▁杜绝	-11.7714
倾	-11.7714
.	-11.7715
禹	-11.7715
▁啃	-11.7717
▁半夜	-11.7721
▁八年	-11.7726
▁招待	-11.7728
▁琉璃	-11.7728
吹	-11.7729
▁平整	-11.7731
▁軍	-11.7732
▁嗨	-11.7732
▁回想	-11.7732
▁雙	-11.7736
▁值得一提的	-11.7737
▁口号	-11.7737
▁邢	-11.7737
▁合规	-11.7738
▁不愧	-11.7739
▁技艺	-11.7742
▁CPU	-11.7743
▁悠悠	-11.7744
▁择	-11.7746
▁穿梭	-11.7748
▁屏蔽	-11.7749
▁手套	-11.775
▁缝隙	-11.7754
▁地向	-11.7756
揍	-11.7757
▁扑克	-11.7759
▁节假	-11.7759
▁IC	-11.776
▁发掘	-11.7764
▁极高	-11.7766
而知	-11.7766
▁指纹	-11.7768
缕	-11.7769
▁筷子	-11.7769
▁民俗	-11.7771
▁MM	-11.7774
ell	-11.7775
▁纱	-11.7775
▁特效	-11.7775
▁坊	-11.7775
節	-11.7776
出现	-11.7777
▁美学	-11.7777
各界	-11.7777
▁热带	-11.778
▁六大	-11.7783
kg	-11.7786
▁厮	-11.7786
ce	-11.7786
▁职称	-11.7786
▁武侠	-11.7787
da	-11.7789
▁谅	-11.7789
▁泄	-11.7789
▁繁殖	-11.7791
▁宽带	-11.7795
▁難	-11.7796
▁程式	-11.7796
▁外交部	-11.7796
▁澎湃	-11.7798
▁曼联	-11.78
▁出差	-11.78
▁曼谷	-11.78
▁域	-11.78
▁高出	-11.7801
▁华南	-11.7803
▁性子	-11.7804
▁国会	-11.7805
▁货架	-11.7806
▁不理	-11.7809
▁万达	-11.781
电子邮件	-11.781
前景	-11.7812
▁方可	-11.7812
▁异议	-11.7814
ㄤ	-11.7815
▁气流	-11.7816
▁悬浮	-11.7816
▁模范	-11.7818
無	-11.7818
合理	-11.7818
▁初始	-11.7819
荐	-11.7821
回来	-11.7822
▁教研	-11.7823
快乐	-11.7825
▁狭	-11.7827
▁刻苦	-11.7828
▁奇特	-11.7828
攻击	-11.7829
▁靶	-11.783
▁抗拒	-11.783
▁巡逻	-11.7831
▁铠	-11.7831
▁美方	-11.7831
資	-11.7831
▁逃避	-11.7832
▁追杀	-11.7832
▁冻结	-11.7833
▁筒	-11.7833
爵	-11.7834
▁泄漏	-11.7835
▁外科	-11.7835
▁演示	-11.7835
▁悄然	-11.7836
▁圈子	-11.7836
▁看得出	-11.7836
▁叶片	-11.784
胺	-11.7841
▁房贷	-11.7842
▁IPO	-11.7842
▁康熙	-11.7842
徐	-11.7845
▁国标	-11.7845
▁综	-11.7846
衬	-11.7847
▁荤	-11.7847
涡	-11.7848
▁通天	-11.7851
▁名誉	-11.7856
▁彩虹	-11.7857
▁人員	-11.7857
▁夯	-11.7857
▁含笑	-11.7857
▁稱	-11.7858
40	-11.7859
▁说好	-11.786
▁涌现	-11.7861
同志	-11.7861
▁良久	-11.7862
▁缺口	-11.7864
▁前列	-11.7866
▁第十三	-11.7866
▁无缝	-11.7867
那	-11.7868
▁敖	-11.7868
▁提案	-11.7869
▁根基	-11.787
▁京报	-11.787
額	-11.7871
▁位居	-11.7872
▁瞄	-11.7872
生意	-11.7874
▁经贸	-11.7879
葱	-11.7879
▁致富	-11.788
▁瑜	-11.788
▁克制	-11.788
▁妳	-11.7881
▁6192	-11.7881
▁飞速	-11.7884
▁讳	-11.7884
啪	-11.7885
購	-11.7885
咨询	-11.7886
▁通话	-11.7886
▁解脱	-11.7886
▁搴	-11.7887
19.32	-11.7887
▁大豆	-11.7888
▁甲方	-11.7891
鐭	-11.7892
簡	-11.7894
建筑	-11.7895
▁主打	-11.7896
剧院	-11.7897
▁青云	-11.7898
28	-11.7898
▁轨迹	-11.7899
▁愉悦	-11.79
▁萱	-11.79
龟	-11.79
▁嗎	-11.7902
▁鹏	-11.7904
▁长相	-11.7904
东西	-11.7906
▁招募	-11.7906
▁挤压	-11.7908
▁高山	-11.7911
焊	-11.7912
ra	-11.7912
喵	-11.7914
▁做过	-11.7914
▁过大	-11.7916
▁宾	-11.7917
得起	-11.7918
▁嫡	-11.792
运输	-11.792
遭	-11.7921
▁议会	-11.7921
▁妨碍	-11.7924
▁马克	-11.7924
▁终结	-11.7924
▁发烧	-11.7925
鎷	-11.7925
▁谈论	-11.7927
▁馬	-11.7929
▁购车	-11.793
痘	-11.793
▁任命	-11.793
▁熊猫	-11.7932
▁阿拉伯	-11.7932
▁1.6	-11.7932
▁老太	-11.7932
▁近乎	-11.7932
▁1.8	-11.7934
▁被誉为	-11.7937
▁乐器	-11.7937
相信	-11.7938
堪	-11.794
▁任由	-11.7941
▁华东	-11.7941
▁艘	-11.7945
▁明珠	-11.7948
▁落入	-11.7949
▁失眠	-11.7949
▁耐火材	-11.795
▁初次	-11.7953
▁达标	-11.7954
▁收敛	-11.7957
▁1.1	-11.7957
▁高原	-11.796
夋	-11.796
▁二年	-11.7961
伞	-11.7962
▁反驳	-11.7962
ソ	-11.7964
▁卡片	-11.7964
▁魔族	-11.7964
▁热心	-11.7965
▁箱包	-11.7965
▁清净	-11.7965
▁定点	-11.7966
▁悉	-11.7966
▁汉族	-11.7968
▁PVC	-11.7968
▁溶液	-11.7969
▁清爽	-11.797
储	-11.7972
▁黃	-11.7974
饱	-11.7974
▁水源	-11.7975
se	-11.7976
▁长生	-11.7976
▁变异	-11.7977
▁回馈	-11.7977
▁封面	-11.7981
▁戈	-11.7982
幻	-11.7983
▁从严治	-11.7984
bo	-11.7989
鞭	-11.799
▁七十	-11.7991
▁倚	-11.7992
▁粗糙	-11.7992
▁三百	-11.7993
▁犀	-11.7994
觑	-11.7994
go	-11.7996
▁轿	-11.7996
▁福特	-11.7997
▁柠檬	-11.7997
▁阴沉	-11.7999
▁盘点	-11.8
▁检修	-11.8
▁漫天	-11.8
▁下落	-11.8001
▁召集	-11.8001
▁翟	-11.8002
AS	-11.8004
完善	-11.8006
th	-11.8007
▁动摇	-11.8008
▁人造	-11.8012
99	-11.8012
▁安家	-11.8017
▁七星	-11.8018
▁老旧	-11.8018
▁衣柜	-11.8018
▁浆	-11.8018
▁腰间	-11.8019
▁投稿	-11.802
▁主板	-11.802
▁收纳	-11.8022
胈	-11.8022
▁不合	-11.8025
不成	-11.8026
▁外壳	-11.8028
◇	-11.8028
▁二者	-11.803
ap	-11.803
▁分歧	-11.8031
▁法力	-11.8031
▁相亲	-11.8033
适	-11.8034
▁族长	-11.8035
▁喷出	-11.8039
饶	-11.804
▁膝盖	-11.8042
▁on	-11.8044
▁泼	-11.8045
▁华盛顿	-11.8045
▁崇拜	-11.8045
▁用戶	-11.8046
箞	-11.8046
▁两步	-11.8047
▁无声	-11.8048
嚜	-11.8049
幽	-11.8049
▁晚会	-11.8049
▁助推	-11.8051
迷茫	-11.8055
▁作弊	-11.8055
IS	-11.8057
護	-11.8058
▁早晚	-11.8059
▁农家	-11.8059
▁佛法	-11.8062
▁造就	-11.8063
馬	-11.8063
▁娱乐场	-11.8065
▁醋	-11.8067
▁流入	-11.8069
▁后勤	-11.807
pa	-11.8071
別	-11.8071
鰁	-11.8071
▁一世	-11.8072
▁愚	-11.8074
▁眉毛	-11.8074
嘅	-11.8074
▁敏锐	-11.8075
灌	-11.8077
▁六月	-11.8077
計	-11.8078
閫	-11.8081
惮	-11.8082
▁遗失	-11.8082
耐	-11.8082
▁勋	-11.8086
▁置于	-11.8087
▁求婚	-11.8087
涘	-11.8087
▁学业	-11.8089
▁灭火	-11.809
▁冲锋	-11.8091
▁睿	-11.8091
▁赫然	-11.8092
▁栽培	-11.8096
罢	-11.8098
▁成為	-11.81
漂亮	-11.8101
▁英超	-11.8102
样子	-11.8102
▁谈谈	-11.8102
ty	-11.8104
▁方位	-11.8104
▁产销	-11.8105
▁核查	-11.8106
▁独有	-11.8106
▁篮板	-11.8107
io	-11.8107
▁乘车	-11.8113
▁卤	-11.8114
奶奶	-11.8116
▁高职	-11.8116
▁顺手	-11.8117
▁管制	-11.8118
▁糟	-11.8118
▁怎能	-11.8119
▁之战	-11.812
党员	-11.812
▁绝世	-11.812
則	-11.8121
既往	-11.8125
▁副会	-11.8127
▁如意	-11.8128
▁高新区	-11.8132
▁鄙	-11.8132
▁僵硬	-11.8132
▁强奸	-11.8133
▁张扬	-11.8134
▁句子	-11.8135
▁第十一	-11.8136
▁不懈	-11.8137
▁夺冠	-11.8138
▁发给	-11.8138
堤	-11.8139
▁权重	-11.814
▁济	-11.8141
彼	-11.8143
▁′′	-11.8144
▁专心	-11.8146
▁螺丝	-11.8148
▁日照	-11.8149
▁無法	-11.8153
▁下水	-11.8155
▁挤出	-11.8156
▁填充	-11.8159
▁一朵	-11.8159
▁无处	-11.8164
▁Pro	-11.8165
▁三点	-11.8165
ON	-11.8166
屑	-11.8171
▁惨叫	-11.8172
▁主观	-11.8173
▁近来	-11.8173
诵	-11.8176
仿	-11.8177
▁牵引	-11.8178
▁玄机	-11.8179
▁溢	-11.8179
▁掌声	-11.8181
▁铭	-11.8181
嫣	-11.8182
▁洗净	-11.8182
▁低下头	-11.8183
▁物价	-11.8186
▁往外	-11.8187
▁天色	-11.8187
▁清澈	-11.8188
▁大喜	-11.8189
▁一并	-11.819
ab	-11.8191
▁重启	-11.8193
▁低下	-11.8195
▁趋	-11.8196
▁恰恰	-11.8197
▁预料	-11.82
▁天内	-11.82
对劲	-11.82
▁刹车	-11.8202
▁开票	-11.8203
蘭	-11.8207
▁嘿	-11.8208
▁说来	-11.8209
▁一架	-11.821
▁送上	-11.8211
▁防盗	-11.8211
▁重型	-11.8212
庢	-11.8212
革	-11.8213
骮	-11.822
ぉ	-11.822
胃	-11.8222
敦	-11.8225
▁闽	-11.8225
▁机车	-11.8227
▁1990	-11.8228
▁屯	-11.8228
▁演奏	-11.8237
▁牡丹	-11.8238
澳	-11.8239
▁不尽	-11.8239
各	-11.824
▁雷电	-11.824
▁分裂	-11.8241
▁国家队	-11.8241
▁不免	-11.8242
荫	-11.8243
▁耿	-11.8245
▁跟进	-11.8246
▁诸如	-11.8247
▁来历	-11.8249
厨	-11.8249
皙	-11.825
▁新房	-11.825
▁恶性	-11.825
▁迫切	-11.8252
▁纵然	-11.8254
▁Zr	-11.8257
▁变换	-11.8258
ip	-11.826
▁USB	-11.8262
▁演变	-11.8264
▁管件	-11.8265
▁出产	-11.8266
▁掉落	-11.8267
▁全局	-11.827
▁1994	-11.8271
▁车门	-11.8275
踪	-11.8275
▁欣喜	-11.8279
▁第一名	-11.8279
▁闺	-11.828
富含	-11.8281
▁战神	-11.8282
▁顺畅	-11.8282
▁谁知	-11.8283
▁颠覆	-11.8284
▁小微	-11.8284
▁侮辱	-11.8285
▁不光	-11.8285
標	-11.8286
▁发文	-11.8288
▁改正	-11.8289
▁废水	-11.829
决赛	-11.829
▁破损	-11.8291
ian	-11.8293
▁筋	-11.8293
▁残忍	-11.8294
▁气血	-11.8294
犳	-11.8297
▁抓紧	-11.8297
▁高频	-11.8298
9001	-11.8299
▁划线	-11.8299
▁小队	-11.8302
泊	-11.8304
▁畜	-11.8311
▁一点儿	-11.8311
▁故宫	-11.8312
▁可视	-11.8312
疤	-11.8314
而言	-11.8314
▁焉	-11.8315
▁磨练	-11.8317
▁政权	-11.8319
崇	-11.8319
▁擦拭	-11.8321
▁放手	-11.8321
▁织	-11.8321
▁回合	-11.8322
▁这笔	-11.8323
▁冲出	-11.8324
▁禁区	-11.8324
▁绔	-11.8326
▁老妈	-11.8326
▁中式	-11.8327
同学	-11.8328
▁选取	-11.833
虾	-11.8333
▁st	-11.8334
▁一心	-11.8334
▁守卫	-11.8334
▁不服	-11.8336
祠	-11.8337
▁核准	-11.8341
▁105	-11.8342
▁捅	-11.8342
▁四五	-11.8343
▁抽奖	-11.8344
▁小学生	-11.8345
▁贵宾	-11.8348
▁四月	-11.8348
▁微波	-11.835
日制	-11.8353
▁逃离	-11.8355
▁下雨	-11.8355
▁前端	-11.8355
▁救命	-11.8355
璃	-11.8355
上市	-11.8356
▁导入	-11.8356
▁求生	-11.8357
▁必不可	-11.8357
▁暴雨	-11.8359
ㄧ	-11.8361
▁一转	-11.8362
▁数据分析	-11.8363
▁行车	-11.8365
▁湿润	-11.8367
▁暧昧	-11.8367
語	-11.8371
▁惊天	-11.8372
▁光彩	-11.8372
▁第十二	-11.8372
▁插件	-11.8375
▁天真	-11.8377
铜	-11.8378
▁帅哥	-11.8378
▁cc	-11.8379
▁丘	-11.838
挥	-11.838
晚上	-11.838
▁观音	-11.8383
▁碾	-11.8384
▁前列腺	-11.8386
梢	-11.8387
▁这支	-11.8387
▁鐐	-11.8392
▁诛	-11.8393
嘀咕	-11.8395
贸易	-11.8395
▁缠绕	-11.8397
樣	-11.8398
▁退役	-11.8399
▁雷诺	-11.8399
▁走近	-11.8403
▁追逐	-11.8405
▁蝶	-11.8405
▁药剂	-11.8405
▁呜	-11.8408
▁民办	-11.8409
▁本店	-11.841
st	-11.841
▁公安部	-11.8411
▁理发	-11.8413
▁这类	-11.8414
當	-11.8415
▁越高	-11.8415
▁顶部	-11.8415
▁安卓版	-11.8415
▁辫	-11.8416
▁原子	-11.8417
▁图标	-11.842
▁璀璨	-11.842
▁推销	-11.8423
容量	-11.8424
▁跳动	-11.8424
▁熔	-11.8425
混	-11.8425
疗	-11.8425
▁秉持	-11.8426
▁莉	-11.8428
▁1993	-11.843
▁大树	-11.843
▁频频	-11.8433
璋	-11.8433
▁吉林省	-11.8434
▁容貌	-11.8435
▁马云	-11.8436
▁公公	-11.8437
▁奴隶	-11.8439
笙	-11.8439
▁离子	-11.8439
▁奖学金	-11.8442
▁迄今	-11.8443
▁就医	-11.8444
▁侠	-11.8445
▁晏	-11.8446
準	-11.8447
▁终点	-11.8448
07	-11.8448
穗	-11.845
▁保護	-11.8455
▁饲养	-11.8455
▁对准	-11.8455
执	-11.8455
▁嘻嘻	-11.8456
▁2500	-11.8456
▁降价	-11.8458
ard	-11.8458
▁束	-11.8458
▁势必	-11.846
▁血肉	-11.8462
状态	-11.8463
▁刷卡	-11.8464
▁晶莹	-11.8464
▁驴	-11.8465
夷	-11.8467
▁太高	-11.8468
▁滚动	-11.847
▁喘息	-11.8472
▁投降	-11.8472
▁鑫	-11.8474
声称	-11.8475
▁少儿	-11.8479
▁渲染	-11.8482
▁废气	-11.8482
纵	-11.8482
▁不佳	-11.8485
▁法学	-11.8487
戞	-11.8489
儒	-11.849
▁人族	-11.8494
▁竣工	-11.8494
86	-11.8495
▁天马	-11.8496
总局	-11.8496
▁中标	-11.8497
▁一想	-11.8498
巷	-11.8501
年级	-11.8503
▁上天	-11.8505
▁尊严	-11.8505
健全	-11.8506
▁圣经	-11.8507
▁天子	-11.8507
▁固化	-11.8509
▁星光	-11.8509
▁有话	-11.8509
▁摸索	-11.8513
▁雄厚	-11.8514
欠	-11.8515
▁人能	-11.8516
皬	-11.8516
兄弟	-11.8517
▁下发	-11.8519
▁驱逐	-11.8519
经营	-11.8523
▁署	-11.8524
▁制动	-11.8525
▁就读	-11.8525
▁可行性	-11.8528
▁师弟	-11.853
▁值得注意	-11.853
▁花样	-11.853
▁好听	-11.853
▁战力	-11.8531
▁打折	-11.8531
▁立时	-11.8532
▁油脂	-11.8532
▁有如	-11.8532
▁完结	-11.8534
郡	-11.8537
▁科幻	-11.8538
▁出厂	-11.8538
72	-11.8539
▁嘲笑	-11.8539
▁长途	-11.854
▁归纳	-11.8541
▁贴近	-11.8541
公子	-11.8541
▁婷婷	-11.8543
▁報	-11.8544
▁葬	-11.8545
▁稳定剂	-11.8547
▁本体	-11.8548
400	-11.8549
▁灶	-11.8549
▁by	-11.855
娆	-11.8551
▁参会	-11.8552
▁假装	-11.8553
▁學習	-11.8554
挑	-11.8555
▁脱落	-11.8557
▁往返	-11.8558
em	-11.8558
▁核对	-11.8559
▁丞	-11.8559
齹	-11.856
医生	-11.856
▁仗	-11.8561
▁核电	-11.8564
▁武术	-11.8566
▁南通	-11.8567
▁无码	-11.8567
开朗	-11.8567
▁0.2	-11.8568
▁风俗	-11.8568
▁陨	-11.8568
日期	-11.8572
▁聆听	-11.8572
▁良心	-11.8574
▁人手	-11.8575
颅	-11.8577
▁组长	-11.8577
期徒	-11.8578
35	-11.8578
▁玲珑	-11.8578
▁框	-11.8578
▁調	-11.8579
漪	-11.8583
▁樱花	-11.8583
更	-11.8584
▁踏入	-11.8587
动机	-11.8588
确定	-11.8589
▁中信	-11.859
覺	-11.859
贩	-11.8591
▁光是	-11.8596
▁杞	-11.8598
▁紧跟	-11.8598
捏	-11.8599
▁捐款	-11.8599
▁低沉	-11.8604
▁更要	-11.8605
▁茅	-11.8607
▁迷你	-11.8609
▁老家	-11.861
▁阵地	-11.861
▁八大	-11.8611
▁親	-11.8612
▁巴萨	-11.8614
▁噪声	-11.8615
▁招牌	-11.8616
▁圣地	-11.8616
▁坪	-11.8617
▁公认	-11.8619
熶	-11.8622
专	-11.8623
▁超强	-11.8623
功率	-11.8624
▁穿透	-11.8624
▁欺诈	-11.8627
小子	-11.8627
ion	-11.8628
▁社会科学	-11.8628
▁风流	-11.863
▁精通	-11.863
▁分行	-11.863
▁威廉	-11.8632
▁好坏	-11.8633
▁薄弱	-11.8634
▁无量	-11.8635
▁误差	-11.8636
▁不死	-11.8638
▁炖	-11.8639
▁900	-11.8642
▁多重	-11.8642
盗	-11.8642
▁欧冠	-11.8643
▁奈何	-11.8644
SE	-11.8644
▁涉案	-11.8644
▁窃	-11.8645
▁配电	-11.8645
▁怡	-11.8646
▁盛世	-11.8646
▁標	-11.8656
▁装潢	-11.8656
▁良性	-11.8658
▁茬	-11.8658
mo	-11.866
▁布满	-11.866
电器	-11.8662
▁柜台	-11.8663
▁交友	-11.8663
▁死者	-11.8665
▁允	-11.8666
缆	-11.8666
潇	-11.8666
▁盛宴	-11.8667
赤	-11.8668
▁79	-11.8669
随地	-11.8669
▁触发	-11.8671
▁直辖	-11.8672
▁照射	-11.8674
嬬	-11.8675
▁降落	-11.8675
▁ch	-11.8677
谣	-11.8681
▁迪士	-11.8683
▁当着	-11.8684
▁红旗	-11.8685
▁精油	-11.8686
▁醇	-11.8688
▁自制	-11.8688
▁痛快	-11.8688
▁过高	-11.8689
丽丝	-11.8689
▁禁忌	-11.8691
▁好歹	-11.8693
▁Ac	-11.8693
▁仆	-11.8693
▁不會	-11.8698
痿	-11.87
▁眼珠	-11.87
▁周二	-11.87
▁癸	-11.8701
▁启发	-11.8703
▁马会	-11.8704
▁间隙	-11.8704
览	-11.8705
▁时要	-11.8706
▁as	-11.8706
当做	-11.8707
▁一模	-11.8709
陽	-11.8711
▁绑架	-11.8712
▁探究	-11.8712
▁跨界	-11.8713
▁炽	-11.8716
▁神龙	-11.8717
音乐	-11.8721
▁琳	-11.8721
▁安定	-11.8723
▁开封	-11.8724
▁刘备	-11.8725
▁机能	-11.8725
▁烹饪	-11.8726
▁厨师	-11.8727
▁大喊	-11.8728
▁一滴	-11.8728
▁屁	-11.8729
▁复仇	-11.8731
▁绞	-11.8731
态度	-11.8732
▁有毒	-11.8732
▁饮水	-11.8732
激	-11.8732
到底	-11.8733
▁贡	-11.8733
▁73	-11.8734
▁八十	-11.8734
帶	-11.8735
▁整洁	-11.8735
禾	-11.8738
▁大使	-11.8739
▁提倡	-11.874
▁文中	-11.8742
愬	-11.8743
缠	-11.8744
▁拦截	-11.8744
▁九龙	-11.8749
▁漩	-11.8753
▁高三	-11.8753
家庭	-11.8753
ne	-11.8754
▁刑法	-11.8754
▁奋力	-11.8756
▁恰	-11.8759
▁车厢	-11.8759
▁两手	-11.8762
▁洛杉矶	-11.8762
▁宴会	-11.8763
▁要死	-11.8764
▁惊奇	-11.8766
ヨ	-11.8768
▁灾害	-11.8769
▁考古	-11.8771
奸	-11.8771
ao	-11.8773
▁报酬	-11.8773
▁吟	-11.8774
▁行業	-11.8775
屬	-11.8775
▁妊娠	-11.8776
▁满月	-11.8776
▁标示	-11.8777
▁时装	-11.8779
▁默契	-11.878
▁应届	-11.878
▁谦	-11.8783
▁皇甫	-11.8783
▁更名	-11.8783
▁汉字	-11.8784
费用	-11.8784
▁客户服务	-11.8785
▁于本	-11.8785
装置	-11.8787
监察	-11.8787
▁掩盖	-11.8788
▁滋润	-11.8789
島	-11.8792
机会	-11.8793
▁卡通	-11.8796
▁小幅	-11.8797
▁急需	-11.8798
▁开盘	-11.8799
▁拔出	-11.8799
之路	-11.8801
判定	-11.8802
▁制裁	-11.8803
▁不爽	-11.8803
▁二代	-11.8803
▁骗子	-11.8805
▁原厂	-11.8806
▁抑	-11.8807
▁窄	-11.8807
▁前台	-11.8809
▁外文	-11.8809
▁吸血	-11.8811
赠	-11.8811
▁化工原	-11.8812
▁五千	-11.8812
▁根據	-11.8812
▁讲师	-11.8812
▁结实	-11.8813
▁叠	-11.8813
▁一到	-11.8813
▁毗	-11.8816
▁户型	-11.8817
▁令牌	-11.8818
op	-11.8818
复杂	-11.882
▁還有	-11.8821
嬶	-11.8821
▁龟头	-11.8822
▁抢先	-11.8822
▁傀儡	-11.8822
▁慎	-11.8825
▁集團	-11.8829
桩	-11.8829
▁家政	-11.8829
奎	-11.8829
▁津	-11.883
▁弓箭	-11.8831
▁狮	-11.8831
該	-11.8834
正常	-11.8835
聲	-11.8835
朋	-11.8836
絮	-11.8838
▁仿真	-11.8839
▁蛊	-11.8844
▁呼啸	-11.8846
▁支配	-11.8847
熱	-11.8852
▁钢结构	-11.8857
▁破裂	-11.886
▁痴	-11.886
踏实	-11.8863
▁拦住	-11.8863
酶	-11.8866
▁起飞	-11.8866
▁净水	-11.8867
▁嗚	-11.8868
▁黄山	-11.8868
▁九月	-11.8869
▁下场	-11.887
▁棚	-11.8872
▁顺势	-11.8873
▁棉花	-11.8875
▁山西省	-11.8875
稱	-11.8876
▁宣传部	-11.8877
▁高新	-11.8877
▁歲	-11.8877
ers	-11.8879
▁摄入	-11.888
▁抖音	-11.8881
▁机身	-11.8885
▁秋冬	-11.8886
▁药材	-11.8887
▁擁有	-11.8887
▁旗帜	-11.8887
▁描写	-11.8891
▁方圆	-11.8892
股份	-11.8892
▁水流	-11.8893
▁叠加	-11.8893
▁奴婢	-11.89
▁翁	-11.89
▁年级	-11.8901
▁肤	-11.8903
▁不快	-11.8903
▁合租	-11.8907
38.96	-11.8908
la	-11.8909
邊	-11.891
▁一族	-11.891
▁眼皮	-11.8913
崎	-11.8914
贡献	-11.8917
▁着重	-11.8919
▁VS	-11.8921
▁一缕	-11.8922
ac	-11.8923
▁马拉松	-11.8925
▁这篇	-11.8925
▁这番	-11.8925
▁四位	-11.8926
▁蠢	-11.8929
▁人大常委会	-11.893
▁脚踏	-11.8931
腕	-11.8935
▁合影	-11.8937
▁抢救	-11.8939
菱	-11.8941
▁贴身	-11.8942
▁业余	-11.8943
▁迷惑	-11.8948
▁民航	-11.8949
▁巨龙	-11.895
▁减弱	-11.895
▁未成年	-11.895
ma	-11.8951
▁开采	-11.8952
▁氮	-11.8953
孽	-11.8955
co	-11.8956
▁脉冲	-11.8956
炳	-11.8957
▁一切都	-11.8959
▁大唐	-11.896
▁大法	-11.896
▁火力	-11.8962
ry	-11.8963
▁镇定	-11.8963
▁专员	-11.8968
臭	-11.897
▁榛	-11.897
注册	-11.8971
▁采纳	-11.8972
▁were	-11.8974
▁娉	-11.8977
泻	-11.8979
▁愧	-11.8979
▁五六	-11.8984
▁回避	-11.8984
▁跳舞	-11.8985
▁出示	-11.8985
▁71	-11.8988
▁出炉	-11.899
▁皮革	-11.8992
▁万家	-11.8993
▁高精度	-11.8993
▁一挥	-11.8995
▁量子	-11.8996
▁庄园	-11.8998
▁扬起	-11.8999
▁小雨	-11.9
小姐	-11.9001
▁狐	-11.9002
▁中途	-11.9003
▁凌厉	-11.9003
削	-11.9006
▁菊花	-11.9006
▁缺失	-11.9007
勢	-11.9007
▁自学	-11.901
▁并发	-11.9011
烫	-11.9012
▁花花	-11.9014
▁索尼	-11.9015
店家	-11.9017
▁痘	-11.9017
▁编剧	-11.902
▁AC	-11.9021
▁写真	-11.9022
▁娃	-11.9022
▁眼底	-11.9023
▁勤奋	-11.9024
▁安抚	-11.9027
▁怀抱	-11.9027
▁德州	-11.9027
不足	-11.9029
▁手镯	-11.9029
ラ	-11.9031
▁静脉	-11.9031
▁汇款	-11.9031
▁粉尘	-11.9032
▁无心	-11.9032
▁手势	-11.9032
不来	-11.9032
▁越野	-11.9036
▁以致	-11.9038
▁呕吐	-11.9038
▁车载	-11.9038
▁高价	-11.9039
▁进修	-11.9044
▁评定	-11.9044
▁改良	-11.9047
▁滚滚	-11.9047
笛	-11.905
▁浸泡	-11.905
▁民用	-11.9052
▁思绪	-11.9052
層	-11.9058
▁蒜	-11.9061
▁巷	-11.9063
▁赞叹	-11.9065
▁帮到	-11.9066
纪元	-11.9067
▁知情	-11.9068
▁碱	-11.9069
钦	-11.9073
▁肩上	-11.9074
凰	-11.9074
▁亡灵	-11.9075
隊	-11.9075
▁地笑	-11.9077
宵	-11.9077
▁遥	-11.9079
▁侨	-11.9079
▁陵	-11.908
▁李克	-11.9082
▁盡	-11.9082
洋洋	-11.9083
▁资格证	-11.9083
利用	-11.9086
▁直达	-11.9086
▁4.5	-11.9088
▁怜	-11.9088
证明	-11.9088
▁彧	-11.9088
▁完工	-11.9092
▁简易	-11.9094
▁财物	-11.9094
▁夕阳	-11.9095
東	-11.9095
▁嗓子	-11.9096
▁难忘	-11.9096
鎺	-11.9097
▁昆仑	-11.9097
產品	-11.9099
▁诺基亚	-11.91
▁获胜	-11.91
na	-11.91
传奇	-11.9101
68.96	-11.9101
▁光纤	-11.9101
▁聘请	-11.9102
▁磅	-11.9102
▁借此	-11.9106
千年	-11.9107
仑	-11.9108
暮	-11.9109
▁畜牧	-11.9111
▁100641	-11.9112
▁听力	-11.9112
▁集结	-11.9113
▁乔治	-11.9115
▁商务部	-11.9116
▁不過	-11.9117
赚	-11.9119
▁哭泣	-11.9119
▁讽刺	-11.9121
▁化成	-11.9122
▁凝视	-11.9123
▁年产	-11.9123
療	-11.9125
▁特产	-11.9127
冻	-11.9127
▁童装	-11.9131
▁天河	-11.9133
▁一艘	-11.9135
▁小巧	-11.9136
电路	-11.9137
播放	-11.9139
SI	-11.914
▁供需	-11.914
▁滕	-11.9141
▁栋	-11.9142
亞	-11.9142
▁体温	-11.9145
▁笼	-11.9145
▁赶上	-11.9146
录用	-11.9148
▁全套	-11.9148
▁八月	-11.9152
匀	-11.9154
▁安然	-11.9154
表情	-11.9155
▁陷	-11.9158
▁黑客	-11.9159
论文	-11.9159
杉	-11.916
▁相干	-11.9162
▁蕾	-11.9163
▁烙	-11.917
▁严密	-11.917
厕	-11.9172
▁乌克兰	-11.9172
▁鹤	-11.9173
▁视力	-11.9177
▁专职	-11.9178
▁平原	-11.9179
▁我用	-11.9179
▁呆呆	-11.9182
▁上调	-11.9184
▁敲门	-11.9184
▁概括	-11.9185
徽	-11.9187
▁山顶	-11.9187
▁细微	-11.9187
▁气得	-11.9188
▁蓬勃	-11.9189
▁價格	-11.9191
▁往事	-11.9192
▁加载	-11.9193
▁拓	-11.9197
▁亦可	-11.9197
▁完后	-11.9199
▁找回	-11.92
谜	-11.92
▁杀伤	-11.9201
▁诗词	-11.9201
悗	-11.9201
▁前锋	-11.9202
▁1980	-11.9204
▁督察	-11.9205
赋	-11.9207
猎	-11.9211
▁血压	-11.9211
▁西湖	-11.9212
▁原告	-11.9213
▁昵	-11.9214
▁氯	-11.9215
▁百科	-11.9219
▁微型	-11.9219
汐	-11.9222
▁饮用	-11.9222
婧	-11.9223
▁宣讲	-11.9223
▁捂着	-11.9223
▁篮	-11.9226
▁不合理	-11.9226
▁譬如	-11.9227
▁堟	-11.9229
▁兵力	-11.9229
密度	-11.923
▁画家	-11.923
▁草莓	-11.9232
▁而来	-11.9234
▁内阁	-11.9234
▁否决	-11.9235
▁庄严	-11.9236
AT	-11.9236
疏	-11.9238
問	-11.9238
▁侦查	-11.9239
▁演艺	-11.9239
▁中兴	-11.9241
▁北斗	-11.9243
记录	-11.9244
骚	-11.9245
椒	-11.9246
▁出名	-11.9246
泣	-11.9246
▁夜色	-11.9247
▁培	-11.9248
▁熄	-11.9249
眯眯	-11.9249
▁拉着	-11.925
▁两句	-11.925
39	-11.9251
▁不起	-11.9251
手段	-11.9252
识别	-11.9253
挠	-11.9255
▁保洁	-11.9256
▁太监	-11.9257
46	-11.9257
▁旺盛	-11.9257
常委	-11.9258
▁数目	-11.9259
▁公立	-11.9259
▁痒	-11.926
▁激素	-11.926
證	-11.9261
学科	-11.9264
▁当铺	-11.9264
▁包子	-11.9266
▁流感	-11.9267
▁畏惧	-11.9267
▁拱手	-11.9268
▁痕	-11.9268
▁恐慌	-11.9268
▁豆瓣	-11.927
解决	-11.9271
line	-11.9272
▁野兽	-11.9272
▁大明	-11.9273
▁无缘	-11.9275
▁自古	-11.9276
▁花朵	-11.9277
▁万能	-11.9279
咬	-11.9279
▁狰狞	-11.928
ba	-11.928
▁大湾	-11.9281
▁使人	-11.9282
▁脸蛋	-11.9285
神经	-11.9287
嗐	-11.9287
▁亭	-11.9288
▁泛起	-11.9289
▁恒温	-11.929
▁迫不及	-11.9291
拰	-11.9292
▁深吸	-11.9292
▁1.4	-11.9293
▁无极	-11.9294
▁潍坊	-11.9296
▁长达	-11.9296
▁色泽	-11.9297
▁单机	-11.9297
▁單位	-11.9298
家具	-11.9299
▁开会	-11.9302
▁身处	-11.9303
▁1.0	-11.9303
吊	-11.9303
▁转会	-11.9306
▁过剩	-11.9308
鞘	-11.9309
▁嬷	-11.9309
▁一则	-11.931
▁再现	-11.9315
▁测评	-11.9315
▼	-11.9316
陶	-11.9319
▁流星	-11.9319
64	-11.9324
▁一来	-11.9324
▁白光	-11.9324
▁大佬	-11.9325
▁大手	-11.9326
▁網路	-11.9327
个股	-11.9328
▁九天	-11.9329
▁人寿	-11.933
▁清清	-11.9331
▁祈祷	-11.9332
▁一再	-11.9333
▁連	-11.9333
▁里程	-11.9334
▁淇	-11.9334
学家	-11.9335
▁分红	-11.9335
▁存量	-11.9336
▁赞赏	-11.9338
插	-11.9338
保持	-11.9338
剪	-11.9339
▁職	-11.9341
▁偿还	-11.9341
▁失效	-11.9343
▁数额	-11.9343
▁廉洁	-11.9344
▁188	-11.9345
愣	-11.9346
▁一種	-11.9346
▁叙	-11.9347
▁国安	-11.9348
▁火花	-11.9349
▁人权	-11.935
▁开头	-11.9351
▁石墨	-11.9352
▁论述	-11.9352
彪	-11.9353
伍	-11.9354
▁大學	-11.9355
▁好心	-11.9356
▁夏日	-11.9359
▁窦	-11.936
▁发售	-11.9362
▁妞	-11.9362
▁炎症	-11.9365
伸	-11.9366
营销	-11.9367
▁轮廓	-11.9369
原因	-11.937
▁庭院	-11.937
▁大步	-11.9371
▁女主角	-11.9371
▁伤亡	-11.9376
▁相识	-11.9376
▁流露出	-11.938
膳	-11.9381
ゅ	-11.9382
ig	-11.9383
▁停顿	-11.9384
▁壁纸	-11.9385
李	-11.9386
▁123	-11.9386
▁灵敏	-11.9387
可见	-11.9387
峙	-11.9396
殊	-11.9397
▁抽象	-11.9399
▁泥土	-11.9404
82	-11.9405
谨	-11.9407
▁暑期	-11.9407
▁数万	-11.941
▁必須	-11.9416
▁之物	-11.9417
匙	-11.9417
▁驾车	-11.9418
▁行列	-11.9419
▁入围	-11.9419
ㄨ	-11.9419
▁之处	-11.9421
少爷	-11.9421
▁墜	-11.9421
80	-11.9422
借	-11.9423
▁睫毛	-11.9423
下调	-11.9424
▁170	-11.9424
▁小龙	-11.9425
▁自治	-11.9427
▁镇压	-11.943
▁午夜	-11.9431
▁雅思	-11.9432
▁诚意	-11.9434
▁南非	-11.9436
恰当	-11.9437
▁无一	-11.9438
▁大火	-11.9438
▁宽敞	-11.9438
▁政党	-11.944
唤	-11.944
▁十字	-11.9441
▁贩卖	-11.9442
▁臀部	-11.9442
▁姑姑	-11.9443
▁阅览	-11.9445
燥	-11.9446
▁揭开	-11.9447
耕	-11.945
▁拉动	-11.9454
▁1.3	-11.9455
▁确切	-11.9456
▁杂质	-11.9459
32.91	-11.9461
晃	-11.9462
▁电线	-11.9464
▁两张	-11.9467
▁or	-11.9468
贱	-11.9471
盔	-11.9471
族群	-11.9471
▁杀戮	-11.9473
▁外星	-11.9473
▁毫无疑	-11.9473
▁txt	-11.9473
▁蹦	-11.9475
▁准时	-11.9476
红酒	-11.9476
導	-11.9477
长时间	-11.9478
▁容纳	-11.9479
▁不为	-11.9479
▁雖然	-11.948
▁弱势	-11.9482
▁质量保证	-11.9483
▁歌声	-11.9483
▁古董	-11.9483
▁此举	-11.9484
斿	-11.9485
淌	-11.9485
溅	-11.9486
▁魔术	-11.9489
▁房企	-11.9489
绒	-11.9489
▁加固	-11.9489
▁义务教育	-11.9491
分彩	-11.9493
▁我爱	-11.9494
▁舱	-11.9495
▁油画	-11.9496
▁修罗	-11.9496
▁论证	-11.9497
▁過程	-11.9499
▁打扫	-11.9499
ET	-11.9499
▁兴致	-11.9499
▁可行	-11.95
▁不甘	-11.9502
▁自营	-11.9504
▁病变	-11.9504
▁因果	-11.9504
▁小黑	-11.9505
▁繕	-11.9508
▁法轮	-11.951
寡	-11.9511
▁次要	-11.9512
丐	-11.9512
▁荆州	-11.9514
▁开花	-11.9514
▁富豪	-11.9515
▁涵	-11.9516
▁酒杯	-11.9516
▁试题	-11.9517
▁表述	-11.9518
▁190	-11.9519
▁出游	-11.9519
▁白白	-11.952
▁厚重	-11.952
▁大力支持	-11.9521
▁穿衣	-11.9522
如今	-11.9522
▁拼搏	-11.9523
▁兆	-11.9523
ive	-11.9524
▁濮	-11.9527
▁清算	-11.9528
▁简便	-11.9528
▁做个	-11.9529
▁樹	-11.953
▁领军	-11.953
▁雁	-11.9531
▁钕化	-11.9531
▁真气	-11.9533
抓	-11.9533
▁發生	-11.9535
▁谣言	-11.9537
▁吃亏	-11.9538
▁关门	-11.9539
▁几何	-11.9539
竿	-11.954
▁断裂	-11.9541
检察	-11.9542
▁喷涂	-11.9542
▁苛	-11.9543
▁一楼	-11.9545
▁芝麻	-11.9546
▁權	-11.9547
▁分管	-11.9549
▁点赞	-11.9552
▁契合	-11.9553
▁保修	-11.9555
▁江山	-11.9555
▁門	-11.9556
▁到场	-11.9561
▁一二	-11.9561
▁2022	-11.9562
▁过硬	-11.9563
▁分区	-11.9563
障碍	-11.9564
▁营商	-11.9564
▁滅	-11.9566
▁笑脸	-11.9566
▁氫	-11.9567
祂	-11.9568
▁轰炸	-11.957
▁曾一	-11.9571
▁径	-11.9571
▁完好	-11.9571
▁淋	-11.9571
大部分	-11.9573
▁北海	-11.9573
▁工程建设	-11.9575
▁趁机	-11.9576
▁則	-11.9576
▁搏	-11.958
▁蟹	-11.958
▁无害	-11.9582
▁九州	-11.9582
客场	-11.9585
▁血红	-11.9585
▁敬业	-11.9587
▁青青	-11.9588
蚀	-11.9588
▁伸缩	-11.9588
▁切断	-11.959
▁日月	-11.9591
沁	-11.9591
▁瘦身	-11.9592
▁弟兄	-11.9595
邑	-11.9596
傜	-11.9598
疚	-11.9598
▁之势	-11.9599
▁擄細	-11.96
▁齿	-11.9602
▁低迷	-11.9603
▁保暖	-11.9605
▁会同	-11.9606
▁快步	-11.9606
US	-11.9609
▁沮	-11.9611
▁公关	-11.9612
胞	-11.9612
焙	-11.9612
▁农历	-11.9612
▁五官	-11.9613
▁業	-11.9613
▁轻笑	-11.9614
▁散布	-11.9614
▁遁	-11.9615
AR	-11.9617
▁大为	-11.9619
▁淬	-11.9621
▁外墙	-11.9621
勃勃	-11.9622
all	-11.9623
▁二十四	-11.9623
▁林枫	-11.9625
▁揣	-11.9626
▁医学院	-11.9627
團	-11.9628
▁推向	-11.9632
▁投机	-11.9633
淼	-11.9633
峡谷	-11.9636
▁代办	-11.9636
▁以至	-11.9637
琛	-11.9639
▁近视	-11.964
▁靖	-11.964
▁葡萄牙	-11.9641
▁床边	-11.9642
▁彩妆	-11.9642
搏	-11.9643
实际	-11.9645
▁牌照	-11.9647
▁不能不	-11.9648
▁皱起	-11.9648
▁潇洒	-11.9648
▁写下	-11.9648
▁組織	-11.9648
▁科教	-11.9649
赌	-11.9654
▁458.93	-11.9654
▁南山	-11.9654
长老	-11.9657
▁高分	-11.9657
▁直觉	-11.9658
▁团长	-11.9658
02	-11.9658
▁逃出	-11.966
▁红军	-11.9663
▁海绵	-11.9664
▁創新	-11.9667
▁诅咒	-11.967
▁應用	-11.967
▁妆	-11.967
▁放宽	-11.9672
▁绍兴	-11.9672
▁构	-11.9672
上下	-11.9677
▁表白	-11.9677
▁书店	-11.9677
▁呐	-11.9678
疯	-11.9678
荡荡	-11.968
▁耗费	-11.9681
▁贵州省	-11.9682
▁辽宁省	-11.9683
▁独具	-11.9686
▁骨骼	-11.9686
▁修仙	-11.9687
▁大好	-11.9689
▁各種	-11.969
▁几秒	-11.9692
▁动弹	-11.9693
▁收盘	-11.9694
▁评委	-11.9695
毙	-11.9696
ex	-11.9697
▁中年男	-11.9698
▁摇晃	-11.9698
▁长效	-11.9698
▁自贸	-11.9698
讨	-11.9699
▁上台	-11.9704
▁千亿	-11.9705
无法	-11.9705
周期	-11.9706
地板	-11.9706
▁打成	-11.9707
▁昂贵	-11.9708
▁不孕	-11.971
04	-11.971
▁静态	-11.971
▁只想	-11.971
▁厄	-11.9711
▁冲刺	-11.9716
▁点数	-11.9716
▁吸取	-11.9719
▁大同	-11.9719
锈	-11.9719
▁清凉	-11.9719
▁轰隆	-11.9721
▁乌鲁木齐	-11.9722
狠	-11.9723
▁党和国	-11.9723
▁嗓	-11.9723
▁排序	-11.9723
▁面貌	-11.9726
▁丛林	-11.9726
議	-11.9727
▁小鱼	-11.9728
▁不下	-11.973
▁名师	-11.973
鍝	-11.973
▁獲得	-11.9731
樱	-11.9731
▁两周	-11.9733
▁救护	-11.9733
▁写字楼	-11.9736
▁PP	-11.9737
链接	-11.9739
▁故乡	-11.9743
▁逃脱	-11.9744
▁青铜	-11.9746
▁生化	-11.9748
▁学士	-11.9748
▁公证	-11.9748
拙	-11.975
伯温	-11.9751
▁东盟	-11.9752
▁环氧	-11.9752
甫	-11.9755
▁崭新	-11.9755
▁薄膜	-11.9755
▁试卷	-11.9755
溜	-11.9755
▁迁移	-11.9756
抢	-11.9756
▁二百	-11.9756
成年人	-11.9756
▁拓宽	-11.9757
▁算计	-11.9759
▁深远	-11.976
▁Ch	-11.9763
▁14517	-11.9764
▁宰	-11.9765
不知	-11.9765
89.12	-11.9765
438.24	-11.9767
▁牛牛	-11.9768
▁底层	-11.977
▁天魔	-11.9771
▁炒作	-11.9771
▁顺应	-11.9772
▁波兰	-11.9772
▁海滩	-11.9772
▁An	-11.9773
▁co	-11.9773
▁镍	-11.9775
▁面粉	-11.9775
▁姊	-11.9776
▁佟	-11.9777
▁内饰	-11.978
▁按键	-11.9781
▁百花	-11.9782
06	-11.9783
▁晃动	-11.9787
▁荡	-11.9787
▁首位	-11.9787
葵	-11.9788
▁席卷	-11.9789
▁太快	-11.979
▁工信	-11.9791
▁限行	-11.9792
▁滨海	-11.9793
一天	-11.9794
▁三层	-11.9794
▁阔	-11.9795
▁问候	-11.9797
▁冬奥	-11.9799
▁细化	-11.98
▁心爱	-11.9801
▁无边	-11.9802
▁幅	-11.9803
▁子弟	-11.9805
纠纷	-11.9808
▁恋人	-11.9809
▁眯	-11.9812
▁地望	-11.9812
▁現在	-11.9813
邃	-11.9814
▁卒	-11.9816
▁不乏	-11.9817
one	-11.9817
垒	-11.9818
▁會員	-11.9819
▁幽幽	-11.9819
▁褚	-11.9819
▁急促	-11.982
▁一齐	-11.982
▁预售	-11.982
鐗	-11.9822
窜	-11.9822
兂	-11.9823
▁萝卜	-11.9824
▁高层次	-11.9824
央	-11.9827
▁太小	-11.9828
▁好莱	-11.9831
灾害	-11.9831
▁对称	-11.9832
▁书生	-11.9832
▁矫正	-11.9833
▁问责	-11.984
▁别忘	-11.984
不明	-11.9841
▁两点	-11.9841
▁邻	-11.9843
壓	-11.9843
▁泳	-11.9844
裳	-11.9845
▁訂	-11.9845
▁普惠	-11.9846
▁仙女	-11.9846
▁平和	-11.9848
▁高素质	-11.9849
▁发了	-11.985
▁路程	-11.9851
▁奥巴	-11.9851
▁淮	-11.9853
▁相见	-11.9854
▁淡绿	-11.9855
▁光华	-11.9855
▁舍得	-11.9857
▁这段	-11.9859
▁挎	-11.986
▁賣	-11.986
▁3000	-11.986
▁解放军	-11.9862
▁鳞	-11.9862
▁幕后	-11.9863
▁看清楚	-11.9864
▁备注	-11.9865
▁光亮	-11.9865
付款	-11.9865
▁嘲讽	-11.9867
▁客车	-11.9867
▁抽插	-11.9868
▁武汉市	-11.9869
斧	-11.9869
▁De	-11.987
▁尊贵	-11.9871
▁得益	-11.9872
诫	-11.9872
▁眼眶	-11.9873
▁特別	-11.9875
▁外媒	-11.9878
▁运动鞋	-11.9879
▁信访	-11.988
剩	-11.9881
▁耗材	-11.9881
语言	-11.9881
▁就诊	-11.9882
绁	-11.9882
▁看病	-11.9884
通道	-11.9884
着脸	-11.9886
▁錢	-11.9886
▁好用	-11.9887
▁散步	-11.9887
▁洞口	-11.9888
や	-11.9888
厥	-11.9889
▁芳	-11.9889
▁田园	-11.9891
▁隐蔽	-11.9893
名称	-11.9893
相同	-11.9896
▁低压	-11.9897
▁冤	-11.9899
曜	-11.9899
▁与众	-11.9901
▁工伤	-11.9905
癣	-11.9905
▁大面积	-11.9907
▁暴风	-11.9908
▁悠闲	-11.9909
截	-11.9914
▁纪录片	-11.9914
▁英俊	-11.9914
▁胶囊	-11.9914
▁陆军	-11.9914
甚	-11.9914
▁党风	-11.9915
▁講	-11.9919
om	-11.9921
授	-11.9922
▁亲友	-11.9923
▁文书	-11.9924
▁招收	-11.9924
▁一众	-11.9925
撑	-11.9925
▁恶化	-11.9926
▁匿名	-11.9926
间断	-11.993
▁闪耀	-11.9931
▁he	-11.9932
▁红外	-11.9935
▁借壳	-11.9935
IC	-11.9936
▁小额	-11.9936
▁战绩	-11.9937
举行	-11.9937
乙	-11.9938
拢	-11.9939
安稳	-11.9942
ment	-11.9945
脏	-11.9947
男孩	-11.9948
▁链条	-11.9949
納	-11.9951
▁才华	-11.9952
▁硅胶	-11.9952
▁野心	-11.9954
▁射手	-11.9955
▁头皮	-11.9957
▁枕头	-11.9958
09	-11.9958
▁科创	-11.9958
▁叙述	-11.9958
▁活塞	-11.9959
缇	-11.9959
▁答题	-11.9962
▁認為	-11.9962
▁二期	-11.9963
▁抽搐	-11.9963
▁隋	-11.9965
▁上衣	-11.9965
工艺	-11.9965
▁张大	-11.9966
▁忠实	-11.9968
▁万方	-11.9971
▁评测	-11.9971
指标	-11.9973
▁因子	-11.9974
扫	-11.9974
▁打磨	-11.9975
▁接管	-11.9978
▁海盗	-11.9978
▁条约	-11.9979
▁普京	-11.9979
▁可控	-11.9984
冈	-11.9984
连串	-11.9985
▁窑	-11.9986
▁COM	-11.9986
ご	-11.9986
▁日语	-11.9987
▁汁	-11.9987
流程	-11.9989
▁看不清	-11.9989
▁争论	-11.999
▁河道	-11.999
▁苯	-11.9991
▁甜甜	-11.9992
▁祭祀	-11.9993
▁市中心	-11.9994
59	-11.9994
▁北上	-11.9994
▁革新	-11.9998
▁愕	-11.9998
▁節	-11.9998
▁水泵	-11.9999
▁红衣	-11.9999
▁翔	-12
挚	-12.0001
▁闲置	-12.0001
▁456.5	-12.0002
▁烈士	-12.0003
▁省内	-12.0005
▁体彩	-12.0008
▁杭	-12.0008
000	-12.0008
▁礼拜	-12.001
▁孕育	-12.001
▁润滑油	-12.0012
▁表决	-12.0012
▁大米	-12.0014
▁那头	-12.0016
麻麻	-12.0016
lu	-12.0016
▁招式	-12.0017
▁非要	-12.0019
▁纯洁	-12.0019
▁可知	-12.0021
▁倾听	-12.0022
▁大风	-12.0023
OS	-12.0024
ho	-12.0025
擎	-12.0025
▁编译	-12.0027
▁上当	-12.0027
▁問	-12.0027
翅	-12.0031
矛盾	-12.0032
试验	-12.0034
濈	-12.0037
▁三家	-12.0038
▁私家	-12.004
形势	-12.0044
▁集会	-12.0044
▁聊聊	-12.0045
▁染色	-12.0045
▁风向	-12.0045
▁浪潮	-12.0046
▁两下	-12.0047
乙烯	-12.0047
▁复发	-12.005
▁地坪	-12.0051
設	-12.0051
▁区委	-12.0052
▁逆转	-12.0055
▁目瞪口呆	-12.0056
▁残疾	-12.0056
▁货源	-12.0056
▁烟雾	-12.0057
▁排污	-12.0058
▁跳跃	-12.0059
▁柔性	-12.006
▁序列	-12.0061
▁核算	-12.0062
▁单人	-12.0062
▁周四	-12.0063
▁脸红	-12.0064
泛	-12.0064
▁熏	-12.0066
▁检疫	-12.0067
▁57804	-12.0069
▁地區	-12.007
纪录	-12.007
▁核桃	-12.0071
▁努	-12.0071
励	-12.0072
▁前瞻	-12.0072
709.80	-12.0072
得了	-12.0073
▁以人为	-12.0075
▁同胞	-12.0076
澄	-12.0076
▁未婚	-12.0077
渠	-12.0078
▁何种	-12.008
▁人参	-12.0082
一声	-12.0087
▁饮酒	-12.0088
▁炙	-12.009
▁泰山	-12.009
▁大雨	-12.009
▁行礼	-12.0091
▁婴幼	-12.0092
▁报表	-12.0093
EN	-12.0094
龍	-12.0096
▁列出	-12.0096
▁富士	-12.0099
▁点心	-12.0101
▁削减	-12.0104
▁例行	-12.0107
▁根源	-12.0107
▁be	-12.0108
71.60	-12.0108
▁凌云	-12.0108
▁抉	-12.0109
mg	-12.0111
可靠	-12.0112
┆	-12.0114
▁远古	-12.0118
▁逐年	-12.0119
▁在校	-12.0122
▁临沂	-12.0123
900	-12.0123
▁大宗	-12.0123
▁练级	-12.0127
▁紅	-12.0127
06.26	-12.0128
苍	-12.013
▁肃	-12.0132
▁崖	-12.0134
▁自定义	-12.0135
吾	-12.0135
成分	-12.0136
▁93	-12.0138
▁梳	-12.0139
▁番茄	-12.014
昧	-12.0141
▁牧师	-12.0142
▁高明	-12.0142
▁歌舞	-12.0142
▁草地	-12.0143
▁延安	-12.0143
▁卡尔	-12.0145
▁虐	-12.0145
▁黨	-12.0146
▁主宰	-12.0147
▁拘	-12.0147
▁1600	-12.0148
戣	-12.0149
▁两件	-12.0152
▁106	-12.0152
巴巴	-12.0153
▁童话	-12.0153
▁较量	-12.0153
▁理赔	-12.0154
▁汲	-12.0154
▁宫颈	-12.0157
▁头像	-12.0158
▁文具	-12.0159
收起	-12.0159
嘲	-12.0163
▁举手	-12.0165
▁册	-12.0167
▁陳	-12.0168
▁医治	-12.0169
猴	-12.0174
拥	-12.0174
▁AG	-12.0175
▁钻进	-12.0176
▁命题	-12.0177
▁衣衫	-12.0177
玮	-12.0178
▁会面	-12.0179
本网	-12.0179
▁英格兰	-12.0179
▁绵	-12.0181
▁实事	-12.0184
▁豪门	-12.0185
▁大侠	-12.0189
▁浓浓的	-12.0189
卢	-12.0192
▁之美	-12.0193
▁扭转	-12.0195
ear	-12.0195
▁信息网	-12.0196
▁耕地	-12.0196
▁天后	-12.0197
▁比利时	-12.0198
▁溅	-12.0198
叠	-12.0199
▁巴基斯坦	-12.0203
馷	-12.0203
▁干涉	-12.0203
od	-12.0204
▁嘉兴	-12.0208
▁短线	-12.0209
▁比丘	-12.0211
▁造价	-12.0211
▁益智	-12.0213
▁特质	-12.0215
▁述	-12.0216
▁天文	-12.0217
▁印花	-12.0217
凳	-12.0217
▁贪婪	-12.0219
▁流氓	-12.0219
▁图表	-12.0219
▁脱水	-12.022
▁儒	-12.0221
▁水产	-12.0222
氭	-12.0223
▁仅限	-12.0224
▁网球	-12.0224
▁禁制	-12.0226
700	-12.0227
▁野外	-12.0228
▁107	-12.0231
蓬	-12.0232
▁樱桃	-12.0234
▁办案	-12.0234
▁經營	-12.0236
进取	-12.0241
▁240	-12.0242
▁魔神	-12.0242
▁展览会	-12.0242
▁背面	-12.0243
▁年经	-12.0246
▁竞选	-12.0247
▁梅西	-12.0248
▁極	-12.0248
RE	-12.0248
▁闫	-12.025
戰	-12.025
▁观望	-12.0251
▁學生	-12.0251
▁莫斯科	-12.0251
学生	-12.0251
坠	-12.0254
璇	-12.0254
ant	-12.0254
▁极力	-12.0255
▁二位	-12.0257
▁炒股	-12.0257
▁访谈	-12.0259
▁张嘴	-12.026
▁4.37	-12.0261
襟	-12.0261
▁電腦	-12.0261
▁星际	-12.0263
卧	-12.0265
▁IE	-12.0266
▁海尔	-12.0266
▁颠	-12.0266
▁脸部	-12.0269
穷	-12.0271
指数	-12.0272
准备	-12.0273
▁狙击	-12.0274
雄厚	-12.0274
▁一次次	-12.0276
▁涂抹	-12.0276
▁花瓣	-12.0277
▁克拉	-12.0278
▁朦胧	-12.0278
▁挫折	-12.0278
▁工商行政	-12.0279
▁组织部	-12.0279
讳	-12.028
体制改革	-12.0281
▁听话	-12.0283
炸	-12.0284
▁支柱	-12.0288
▁木头	-12.0288
▁急急	-12.0288
▁缓冲	-12.0289
旅游	-12.029
▁呜呜	-12.0291
▁新竹	-12.0291
▁迅猛	-12.0291
ob	-12.0291
▁卿	-12.0291
▁胡萝卜	-12.0293
碟	-12.0295
▁保定	-12.0295
▁颯	-12.0296
▁转速	-12.0296
▁玉石	-12.0297
▁沃尔	-12.0298
▁开着	-12.0298
▁抵御	-12.0299
屈	-12.0299
▁威严	-12.0299
▁不觉	-12.03
▁糊涂	-12.0301
契	-12.0301
建议	-12.0304
▁正中	-12.0304
磁	-12.0305
▁冷凝	-12.0305
尔斯	-12.0306
温度	-12.0308
▁XX	-12.0308
▁冲上	-12.0309
▁格林	-12.031
昔	-12.0311
▁万事	-12.0311
▁范文	-12.0312
▁雇	-12.0312
▁递交	-12.0312
.04	-12.0315
▁篇文	-12.0315
▁麻辣	-12.0315
▁可比	-12.0317
▁本田	-12.0318
▁时效	-12.0318
▁排气	-12.0319
▁牟	-12.0319
▁枢纽	-12.032
▁小穴	-12.032
▁紧凑	-12.0321
粰	-12.0322
ice	-12.0323
▁港澳	-12.0325
▁大山	-12.0325
▁楞	-12.0325
▁储物	-12.0326
警察	-12.0326
123	-12.0328
性化	-12.0328
▁旅游业	-12.033
▁脱口	-12.0331
▁揭示	-12.0332
▁票据	-12.0332
▁智能家居	-12.0333
嗙	-12.0335
▁追赶	-12.0337
▁厚厚	-12.0337
鵞	-12.0339
▁加持	-12.034
▁追溯	-12.0344
▁比喻	-12.0344
▁钢丝	-12.0345
▁CS	-12.0348
碼	-12.0348
▁抓获	-12.0352
▁新生儿	-12.0352
▁开支	-12.0352
▁实训	-12.0354
▁膝	-12.0356
▁另类	-12.0357
▁假冒	-12.0358
▁密密	-12.0359
ag	-12.036
▁动脉	-12.0361
▁来往	-12.0368
▁多加	-12.0369
▁許多	-12.0369
▁如若	-12.0371
載	-12.0373
疫	-12.0373
▁沿途	-12.0377
46.80	-12.0377
▁不忍	-12.0377
▁后天	-12.0378
▁NH	-12.0378
▁預	-12.0378
▁秃	-12.0379
煌	-12.0379
▁誰	-12.0384
▁36548	-12.0385
68	-12.0386
▁清脆	-12.0387
▁462.93	-12.0387
▁调用	-12.0387
▁批判	-12.0387
声明	-12.0388
▁声誉	-12.0391
ps	-12.0392
▁未來	-12.0392
▁組	-12.0392
现今	-12.0392
邀	-12.0393
▁一中	-12.0393
彩神	-12.0395
LE	-12.0395
▁婉	-12.0395
霆	-12.0395
▁驿	-12.0398
▁成都市	-12.04
葛	-12.04
▁涨停	-12.0401
▁肝脏	-12.0403
▁苟	-12.0403
鍊	-12.0406
闟	-12.0407
▁姨娘	-12.0409
.07	-12.0409
▁衣裳	-12.041
▁头晕	-12.041
▁結	-12.0412
辨	-12.0413
▁试行	-12.0413
▁悬崖	-12.0415
百年	-12.0416
▁没收	-12.0416
▁沸腾	-12.0419
喘	-12.0419
皵	-12.0421
乌	-12.0422
召	-12.0422
▁拖延	-12.0422
▁胜负	-12.0423
▁不符	-12.0426
掠	-12.0427
▁氨基	-12.0427
▁专案	-12.0427
▁2.1	-12.0428
▁互助	-12.0429
▁万科	-12.0429
▁恳	-12.0429
崩	-12.0429
▁颜料	-12.043
▁亲亲	-12.043
▁横向	-12.0431
山峰	-12.0432
▁全景	-12.0433
▁作物	-12.0435
哨	-12.0436
钝	-12.0437
▁裁定	-12.0438
▁卵巢	-12.0439
▁越过	-12.0443
▁銷售	-12.0443
▁近代	-12.0443
▁推迟	-12.0444
▁工艺品	-12.0448
▁隔音	-12.0448
▁打入	-12.0449
▁剧场	-12.045
53	-12.0452
▁留守	-12.0452
▁淡定	-12.0454
▁壶	-12.0456
▁风扇	-12.0457
▁极强	-12.0457
ity	-12.0458
▁增量	-12.0458
▁入场	-12.0458
▁注册资本	-12.046
▁澡	-12.0461
▁矿业	-12.0462
▁团团	-12.0462
▁共和国	-12.0464
▁忍者	-12.0464
▁报送	-12.0464
▁黛	-12.0466
叨	-12.0466
确	-12.0468
▁人情	-12.0468
▁黎明	-12.0469
▁打发	-12.0469
▁弊	-12.0471
▁万万	-12.0474
▁生殖	-12.0474
▁中国队	-12.0475
▁敞开	-12.0476
▁双双	-12.0476
▁世代	-12.0476
▁生灵	-12.0477
堜	-12.0477
鐧	-12.0477
▁中超	-12.0477
离职	-12.0478
▁广电	-12.0481
▁FO	-12.0482
▁擒	-12.0483
▁绛	-12.0485
▁双人	-12.0486
圖	-12.0486
▁遗忘	-12.0486
▁格力	-12.0488
▁呼唤	-12.0489
管理局	-12.0489
机场	-12.0491
不安	-12.0492
▁降水	-12.0494
法案	-12.0495
咽	-12.0495
▁標準	-12.0496
盏	-12.0497
▁直言	-12.0499
▁无须	-12.0499
臻	-12.0501
▁大理石	-12.0502
调整	-12.0503
08	-12.0503
▁京都	-12.0504
▁赞美	-12.0504
▁一无所	-12.0506
▁新台	-12.0508
▁心血管	-12.0509
▁选出	-12.051
▁血糖	-12.0511
▁变频器	-12.0513
▁大将军	-12.0513
▁缅	-12.0515
▁div	-12.0516
▁散文	-12.0519
▁主权	-12.0519
▁母子	-12.052
鑴	-12.052
▁成语	-12.0521
禰	-12.0522
▁伪装	-12.0526
晗	-12.0526
▁失信	-12.0527
填	-12.0527
▁相貌	-12.053
▁罗斯	-12.053
筱	-12.053
忔	-12.053
▁128	-12.0531
▁邮票	-12.0532
负责	-12.0532
▁万千	-12.0532
▁透气	-12.0532
MA	-12.0533
▁俗称	-12.0534
▁全能	-12.0534
▁叩	-12.0535
▁氧气	-12.0535
▁龙族	-12.0536
▁歉	-12.0536
▁手提	-12.0537
▁依依	-12.0538
勶	-12.0538
▁寂	-12.0539
▁百余	-12.0541
▁佣金	-12.0541
port	-12.0542
▁掌心	-12.0543
▁一员	-12.0547
▁家常	-12.0548
▁匡	-12.0553
▁美化	-12.0555
▁渝	-12.0556
▁這是	-12.0556
▁流域	-12.0557
忆	-12.0558
▁出卖	-12.0558
▁杀菌	-12.0559
▁床头	-12.056
37	-12.0565
▁各家	-12.0568
▁涨价	-12.0569
孴	-12.0571
体制	-12.0571
▁之极	-12.0572
钠	-12.0572
▁几家	-12.0575
▁为民	-12.0575
珟	-12.0576
▁延期	-12.0577
▁兼容	-12.0579
▁績	-12.058
▁辨别	-12.0583
▁申請	-12.0584
▁步兵	-12.0584
▁窘	-12.0585
加强	-12.0586
▁安倍	-12.0588
▁伊拉克	-12.0591
▁对立	-12.0592
▁果汁	-12.0592
▁公用	-12.0592
51.26	-12.0593
▁隔热	-12.0594
安装	-12.0595
▁徘徊	-12.0597
弥	-12.0598
▁怒气	-12.0598
ix	-12.0599
▁霸王	-12.0599
▁別	-12.0601
▁喇叭	-12.0601
▁做些	-12.0601
▁白发	-12.0603
飾	-12.0604
▁辉	-12.0607
效劳	-12.0608
BA	-12.0609
簿	-12.0612
▁手枪	-12.0612
▁事业部	-12.0612
▁悠	-12.0612
▁94219	-12.0612
▁鄂	-12.0613
▁身手	-12.0614
椤	-12.0614
▁草坪	-12.0615
▁阻拦	-12.0617
危机	-12.0617
▁后代	-12.0617
▁神力	-12.0617
▁领会	-12.062
▁烟花	-12.0621
▁宗主	-12.0622
▁白眼	-12.0623
▁智商	-12.0623
▁配偶	-12.0624
▁全额	-12.0627
▁公然	-12.0627
裁	-12.0628
▁涟	-12.0629
▁楠	-12.0629
▁字符	-12.063
▁技术开发	-12.063
▁嗜	-12.0631
▁马桶	-12.0631
羅	-12.0632
▁墙体	-12.0633
▁vs	-12.0634
美人	-12.0634
▁大理	-12.0634
賽	-12.0636
▁召回	-12.0639
▁木质	-12.0639
▁要害	-12.064
▁白痴	-12.0641
保健	-12.0641
▁违	-12.0642
▁冲天	-12.0645
▁痰	-12.0646
▁判处	-12.0646
化学	-12.0647
▁劳动合同	-12.0648
▁妖族	-12.065
TC	-12.0651
嶇	-12.0651
▁实木	-12.0652
66	-12.0653
▁病因	-12.0655
吏	-12.0656
▁Le	-12.0657
稳定	-12.0657
▁词语	-12.0658
▁妥协	-12.066
▁from	-12.0661
愛	-12.0662
▁开办	-12.0663
▁家主	-12.0667
冷淡	-12.0668
外科	-12.0669
滨	-12.0669
▁少林	-12.0669
▁外加	-12.067
TI	-12.067
▁电影院	-12.0671
▁成功率	-12.0671
▁流体	-12.0672
▁置身	-12.0672
▁CT	-12.0672
▁遗产	-12.0672
▁宫里	-12.0672
▁動	-12.0674
▁玛丽	-12.0675
▁亿万	-12.0675
▁镀锌	-12.0676
▁低碳	-12.0676
▁心事	-12.0676
▁滥用	-12.0677
▁时髦	-12.0678
▁負責	-12.0679
▁元旦	-12.0679
港澳	-12.068
▁華	-12.0681
冽	-12.0682
維	-12.0682
▁龙王	-12.0683
灿	-12.0683
▁社会保险	-12.0683
▁接送	-12.0684
▁水下	-12.0686
辦	-12.0686
±	-12.0687
▁白虎	-12.0688
▁淄博	-12.0688
资委	-12.0688
sc	-12.0689
▁橱柜	-12.0689
粥	-12.069
▁哑	-12.0691
▁火光	-12.0691
su	-12.0692
▁逮捕	-12.0692
▁切入	-12.0695
▁一派	-12.0697
惟	-12.0697
▁手足	-12.0698
▁不斷	-12.07
▁八字	-12.0702
▁舆	-12.0702
▁啰	-12.0703
祺	-12.0703
▁一封	-12.0703
主任	-12.0703
▁民主党	-12.0703
GA	-12.0706
▁重力	-12.0707
▁来袭	-12.0707
▁融化	-12.0708
▁专柜	-12.0709
呭	-12.071
壹	-12.0711
▁唐山	-12.0714
av	-12.0718
▁围攻	-12.0719
▁助学	-12.0721
▁博弈	-12.0723
▁划过	-12.0724
▁兄妹	-12.0727
迅	-12.0729
▁肠道	-12.0731
▁此项	-12.0735
▁机动	-12.0735
▁一月	-12.0735
碳	-12.0736
▁口服	-12.0736
▁惊叹	-12.0738
哆嗦	-12.0739
▁溃	-12.0739
▁一樣	-12.0739
▁心脏病	-12.0743
▁麻醉	-12.0745
▁吃饱	-12.0746
▁肠胃	-12.0746
▁分化	-12.0748
▁胡说	-12.0748
萱	-12.0749
EC	-12.0749
▁堂堂	-12.075
▁炭	-12.075
▁伦	-12.0751
▁农机	-12.0751
现实	-12.0751
资讯	-12.0751
期间	-12.0752
▁照样	-12.0752
▁資源	-12.0753
▁浓缩	-12.0755
▁生前	-12.0756
▁小脸	-12.0756
▁千金	-12.0757
潜	-12.0758
▁迟迟	-12.0759
▁当面	-12.076
▁祝您	-12.076
▁聯	-12.0761
▁有空	-12.0764
▁风电	-12.0766
鸭	-12.077
大人	-12.0773
▁依法追究	-12.0774
▁损耗	-12.0775
陈	-12.0778
▁作為	-12.0779
▁馅	-12.0781
▁天尊	-12.0782
窑	-12.0783
熬	-12.0784
▁开除	-12.0786
▁空压	-12.0786
▁娘子	-12.0786
.2	-12.0788
▁日用	-12.0788
▁1988	-12.0788
▁树枝	-12.079
▁場	-12.0791
▁外婆	-12.0794
▁空空	-12.0795
▁区区	-12.0795
粗	-12.0796
▁热气	-12.0796
▁生猪	-12.0796
▁黑人	-12.0798
▁言情	-12.0798
▁创造性	-12.0798
▁鹅	-12.0799
▁穿戴	-12.0799
多彩	-12.08
▁可信	-12.0801
▁同盟	-12.0801
▁烦躁	-12.0801
▁一角	-12.0801
▁单词	-12.0802
▁神州	-12.0804
▁善意	-12.0805
▁生鲜	-12.0805
▁毛利	-12.0805
▁出头	-12.0806
▁漫步	-12.0806
▁黑洞	-12.0807
▁陈列	-12.0807
邸	-12.0811
▁凝结	-12.0815
▁报废	-12.0815
▁con	-12.082
羡	-12.0821
▁须知	-12.0821
.11	-12.0822
▁金华	-12.0823
▁独角	-12.0826
▁高通	-12.0828
▁婴	-12.0828
▁追上	-12.083
▁一晃	-12.0831
▁皱纹	-12.0832
▁基建	-12.0833
▁装扮	-12.0833
▁齐齐	-12.0834
▁循	-12.0835
▁策	-12.0835
▁之时	-12.0836
呈	-12.0836
▁竭诚	-12.0837
肯定	-12.0837
栗	-12.0838
▁开源	-12.0838
▁靴	-12.0839
▁投身	-12.0839
闆	-12.0841
▁刁	-12.0842
▁135	-12.0842
說	-12.0843
业者	-12.0843
▁日日	-12.0845
▁摸摸	-12.0845
▁绘制	-12.0847
▁物种	-12.0848
三人	-12.0848
▁蝙蝠	-12.0849
▁小山	-12.085
遣	-12.0851
▁顯示	-12.0851
▁讨好	-12.0853
▁开阔	-12.0854
▁人脸	-12.0856
▁保姆	-12.0856
件事	-12.0856
▁换来	-12.0857
▁惜	-12.0859
▁预先	-12.0859
甸	-12.0859
▁如图	-12.0861
▁数位	-12.0862
▁探险	-12.0864
▁油烟	-12.0864
▁旱	-12.0866
▁狂欢	-12.0868
返还	-12.0868
▁不定	-12.0869
▁中国移动	-12.087
53.26	-12.0871
▁店主	-12.0873
▁呼叫	-12.0874
.1	-12.0874
▁耐腐蚀	-12.0874
▁已成	-12.0875
▁卜	-12.0876
一无二	-12.0876
▁精子	-12.0877
▁全国政协	-12.0878
▁五人	-12.0879
▁通俗	-12.088
▁歌唱	-12.0883
du	-12.0883
▁抗战	-12.0884
▁军方	-12.0885
▁斥	-12.0886
▁哺乳	-12.0886
▁长征	-12.0889
▁丽江	-12.0889
▁定量	-12.0889
▁淑	-12.0889
▁火烧	-12.089
▁17272	-12.089
▁神魂	-12.0895
婃	-12.0896
狀	-12.0896
吼	-12.0898
▁瞳孔	-12.0898
▁诸葛亮	-12.0898
▁LaCl	-12.0899
▁直流	-12.0902
山区	-12.0903
▁防空	-12.0905
▁当家	-12.0905
烤	-12.0907
IA	-12.0909
▁之星	-12.091
▁膳食	-12.0912
▁抗衡	-12.0912
▁领土	-12.0912
▁台下	-12.0913
▁母乳	-12.0914
05	-12.0914
▁迟早	-12.0914
▁百强	-12.0916
▁推测	-12.0917
▁DVD	-12.0917
▁心境	-12.0918
▁青衣	-12.0918
蛮	-12.0918
PS	-12.0919
周年	-12.092
痴	-12.0921
▁責任	-12.0921
▁极好	-12.0921
▁无耻	-12.0922
▁芒果	-12.0922
▁Web	-12.0922
▁福田	-12.0922
地位	-12.0924
▁冷水	-12.0926
▁哥们	-12.0926
糊	-12.0927
▁电视机	-12.0928
▁顾虑	-12.0929
▁一百多	-12.0931
▁修补	-12.0931
酪	-12.0932
▁膏	-12.0933
▁恐韩	-12.0933
協	-12.0935
均价	-12.0935
▁芙蓉	-12.0935
▁洁	-12.0939
▁碑	-12.094
▁進入	-12.0941
▁平平	-12.0942
▁磕	-12.0943
▁领地	-12.0943
▁迫害	-12.0945
▁數據	-12.0948
▁体贴	-12.0948
▁贵妃	-12.0949
▁450	-12.0951
▁2021	-12.0952
路线	-12.0954
RA	-12.0956
▁房里	-12.0958
▁面目	-12.0959
▁鼓舞	-12.096
不已	-12.0961
▁提早	-12.0963
▁0.3	-12.0963
▁子孙	-12.0963
▁反感	-12.0964
▁置信	-12.0965
▁十天	-12.0965
淳	-12.0966
加之	-12.0966
▁LaF	-12.0966
▁整顿	-12.0969
▁奥斯卡	-12.097
組	-12.0971
▁受限	-12.0971
留情	-12.0972
▁有心	-12.0972
▁凡本	-12.0973
▁造假	-12.0975
▁梗	-12.0975
▁北极	-12.0979
▁118	-12.098
▁七彩	-12.0986
▁挽回	-12.0987
▁追随	-12.0988
▁é	-12.0989
▁本王	-12.0989
▁卡车	-12.0991
▁乾隆	-12.0992
监督	-12.0992
哧	-12.0993
▁续航	-12.0994
▁浅绿	-12.0996
▁国立	-12.0998
▁毕业证	-12.0998
▁全校	-12.0999
▁径直	-12.0999
▁半岛	-12.0999
▁愿景	-12.1
▁靳	-12.1
▁編	-12.1001
▁真想	-12.1001
▁號	-12.1003
▁解決	-12.1004
▁急剧	-12.1004
.08	-12.1005
割	-12.1007
▁速率	-12.1008
▁月饼	-12.1008
育人	-12.1008
▁安康	-12.1009
▁踊跃	-12.101
AP	-12.1011
sh	-12.1012
▁闵	-12.1012
▁洁白	-12.1014
▁0.8	-12.1015
▁美团	-12.1015
▁福音	-12.1016
▁1800	-12.1018
▁貨	-12.1018
▁险些	-12.1021
体现	-12.1022
▁扬子	-12.1022
藻	-12.1022
▁氟	-12.1023
▁熔点	-12.1024
大堆	-12.1024
▁二八	-12.1024
ms	-12.1025
▁升温	-12.1025
利亚	-12.103
▁世博	-12.103
不良	-12.1032
▁酱油	-12.1033
▁夏侯	-12.1034
百万	-12.1034
▁不多	-12.1036
▁视察	-12.1039
▁排斥	-12.104
▁捆	-12.1041
▁家教	-12.1042
▁CeF	-12.1044
辑	-12.1047
▁周转	-12.1048
▁新春	-12.1049
▁预言	-12.105
▁丝丝	-12.1054
▁抽查	-12.1054
▁樂	-12.1054
▁抢劫	-12.1057
▁长寿	-12.1057
▁喻	-12.1059
▁帐户	-12.1061
▁事迹	-12.1062
銷	-12.1062
DA	-12.1063
昱	-12.1063
▁其實	-12.1064
▁钠	-12.1064
诈	-12.1065
纶	-12.1066
▁104	-12.1066
▁規定	-12.107
▁礼服	-12.1071
滿	-12.1071
▁师妹	-12.1072
▁不爱	-12.1072
▁今生	-12.1074
▁这道	-12.1074
▁透過	-12.1074
▁道长	-12.1074
▁被害	-12.1075
▁創	-12.1076
▁饺子	-12.1076
▁丹麦	-12.1077
▁超人	-12.1077
▁血迹	-12.1077
戶	-12.1077
▁109	-12.1078
▁愚蠢	-12.1078
▁金丹	-12.1079
▁预示	-12.1081
▁二字	-12.1081
头来	-12.1081
▁果真	-12.1082
尊者	-12.1082
▁李家	-12.1084
▁宝剑	-12.1085
▁坠落	-12.1085
▁邓小平	-12.1085
沿	-12.1087
▁相爱	-12.1087
▁NdF	-12.1088
恭	-12.1089
窖	-12.1089
▁脱颖	-12.109
▁х	-12.1091
▁咚	-12.1091
▁脑中	-12.1094
▁进场	-12.1094
▁构筑	-12.1095
多年	-12.1097
迈	-12.11
▁深沉	-12.1101
▁潜伏	-12.1102
▁增收	-12.1103
筽	-12.1105
▁孔雀	-12.1105
▁杭州市	-12.1108
▁滿	-12.1108
▁with	-12.1108
dy	-12.1114
▁名家	-12.1114
▁蜗	-12.1115
▁财报	-12.1116
倦	-12.1116
▁树上	-12.1116
籽	-12.1118
▁继而	-12.1119
月份	-12.112
▁雇佣	-12.1123
▁时请	-12.1125
廉政	-12.1125
ack	-12.1126
.06	-12.1127
yY	-12.1127
此刻	-12.1129
▁瞬	-12.113
▁建議	-12.1131
▁监护人	-12.1131
▁奢侈	-12.1131
▁舅舅	-12.1132
▁剂量	-12.1134
▁不以为	-12.1135
厮	-12.1135
▁勉	-12.1135
▁救人	-12.1136
▁翻开	-12.1137
喷	-12.1137
▁伪造	-12.1138
▁辦	-12.1139
▁谴	-12.1142
52	-12.1143
▁酶	-12.1146
▁1989	-12.1146
▁pro	-12.1147
▁web	-12.1148
▁晾	-12.1148
斷	-12.115
▁原装	-12.1151
營	-12.1151
▁全國	-12.1152
渴	-12.1153
滞	-12.1153
▁字样	-12.1154
枣	-12.1154
▁蜡	-12.1156
▁城外	-12.1156
▁图为	-12.1156
衔	-12.1158
格尔	-12.1158
▁把持	-12.1158
擊	-12.1159
▁研究成果	-12.116
▁走走	-12.1164
▁后卫	-12.1168
▁锯	-12.117
时刻	-12.117
▁工业化	-12.1171
槃	-12.1171
▁军营	-12.1173
▁组队	-12.1173
▁腔	-12.1173
▁摩托	-12.1174
糊糊	-12.1174
▁狱	-12.1174
▁三十年	-12.1175
▁电玩	-12.1175
▁精锐	-12.1178
▁战友	-12.1178
乐乐	-12.1179
踏	-12.118
▁辩论	-12.1182
▁衰	-12.1185
▁喉	-12.1187
.05	-12.1187
▁唯美	-12.1187
▁实例	-12.1188
勉	-12.1193
▁示威	-12.1194
▁離	-12.1194
协议	-12.1194
▁澄	-12.1195
▁锂电	-12.1195
▁启示	-12.1197
▁一排	-12.1197
▁黑龙江省	-12.1197
▁實現	-12.1197
獎	-12.1198
▁可想	-12.1199
▁激起	-12.1199
砚	-12.12
▁来访	-12.1205
▁药师	-12.1206
▁經驗	-12.1206
黛	-12.1207
▁监委	-12.1208
記	-12.1208
▁存活	-12.1208
▁接种	-12.1208
▁人头	-12.1209
▁夹杂	-12.1209
▁内有	-12.121
▁机油	-12.121
▁干活	-12.1212
▁肢体	-12.1218
▁機構	-12.1218
▁符合条件	-12.1219
end	-12.122
进来	-12.122
▁坤	-12.1221
▁氏	-12.1221
▁自私	-12.1223
▁再起	-12.1223
不通	-12.1223
▁忍耐	-12.1224
▁定然	-12.1224
▁一字	-12.1225
▁年会	-12.1225
式各	-12.1226
▁65292	-12.1226
▁href	-12.1226
▁尚书	-12.1227
▁治病	-12.1228
畫	-12.1229
产量	-12.1231
许可	-12.1233
▁韵	-12.1233
炒	-12.1233
▁一不	-12.1235
▁è	-12.1236
▁写出	-12.1237
▁蜕	-12.1237
▁不来	-12.1238
▁往日	-12.1239
▁幽灵	-12.1242
▁小鬼	-12.1242
▁蒙面	-12.1242
▁反向	-12.1243
▁中队	-12.1243
▁運動	-12.1245
▁廉价	-12.1246
▁羊肉	-12.1246
▁枣	-12.1247
▁山林	-12.1249
▁时应	-12.1252
▁必有	-12.1253
▁怠	-12.1256
煡	-12.1257
聯	-12.1258
政协	-12.1259
▁质检	-12.1259
▁行政处罚	-12.126
▁忧虑	-12.126
▁339.5	-12.1261
▁变色	-12.1261
▁供养	-12.1262
亨	-12.1263
▁为啥	-12.1263
▁总计	-12.1264
▁淀粉	-12.1265
▁无知	-12.1265
▁受众	-12.1267
▁出境	-12.1268
▁转入	-12.127
▁威海	-12.1271
ul	-12.1271
十条	-12.1272
▁豫	-12.1274
▁瑶	-12.1274
结果	-12.1276
▁机缘	-12.1276
▁亡	-12.1276
▁房东	-12.1277
▁里边	-12.1281
▁ED	-12.1282
▁小店	-12.1282
▁填补	-12.1283
▁喽	-12.1284
▁蘑菇	-12.1285
.12	-12.1287
▁电台	-12.1289
▁1.7	-12.1289
▁註	-12.129
▁产出	-12.1291
职业	-12.1291
公告	-12.1292
ha	-12.1293
闸	-12.1293
論	-12.1294
▁宽容	-12.1294
不移	-12.1296
▁半月	-12.1296
▁祝贺	-12.1298
▁耀	-12.1298
动物	-12.13
▁历年	-12.13
▁支队	-12.1303
▁卡拉	-12.1304
推广	-12.1305
▁铺设	-12.1305
▁海内外	-12.131
▁花纹	-12.131
▁生产工艺	-12.1311
▁荀	-12.1313
肘	-12.1315
▁侄	-12.1315
▁漂浮	-12.1316
▁主洗	-12.1316
▁年均	-12.1317
▁一棵	-12.1318
吞	-12.1319
型材	-12.132
▁就行	-12.132
▁安娜	-12.1322
几日	-12.1322
▁一连	-12.1323
▁特长	-12.1324
▁紧迫	-12.1325
▁籍	-12.1326
▁辩护	-12.1326
▁CP	-12.1331
▁数年	-12.1331
挫	-12.1332
▁缘分	-12.1334
蕴	-12.1335
▁调剂	-12.1336
▁相符	-12.1338
▁回味	-12.134
铸	-12.1344
▁一瞬	-12.1347
▁暴涨	-12.1348
▁旅途	-12.1349
▁针织	-12.1349
▁想念	-12.135
▁加州	-12.1352
▁缓和	-12.1352
代理	-12.1352
▁1991	-12.1353
预报	-12.1353
▁CeCl	-12.1358
▁火龙	-12.1358
ou	-12.1358
代表大会	-12.1359
课程	-12.136
許	-12.1361
▁白领	-12.1361
▁心痛	-12.1361
▁用人	-12.1362
氱	-12.1362
▁中专	-12.137
▁收视	-12.1371
ss	-12.1371
熲	-12.1371
▁开场	-12.1371
終	-12.1372
骸	-12.1373
▁第十四	-12.1373
▁心血	-12.1378
▁银行业	-12.1379
庣	-12.1379
▁冷藏	-12.138
▁刀具	-12.1381
▁材	-12.1382
▁遣	-12.1382
eng	-12.1382
BS	-12.1384
▁狂风	-12.1387
诲	-12.1387
▁减免	-12.1388
▁单个	-12.1388
xt	-12.1389
▁静电	-12.139
▁美股	-12.139
▁逝世	-12.139
▁发帖	-12.1391
▁人有	-12.1391
▁鉴别	-12.1392
▁梯	-12.1393
▁功劳	-12.1395
▁庶	-12.1395
▁冲至	-12.1396
up	-12.1397
習	-12.1399
▁直通	-12.14
▁甘肃省	-12.1402
不多	-12.1403
敛	-12.1405
▁机房	-12.1406
▁迈克	-12.1406
▁诏	-12.1406
▁而定	-12.1406
▁酿	-12.1407
▁热议	-12.1407
▁天机	-12.1407
▁坏人	-12.1408
▁城镇化	-12.1409
钞	-12.1411
迦	-12.1413
▁沦	-12.1414
赦	-12.1417
玺	-12.1418
▁容积	-12.1419
▁重返	-12.1419
▁侵略	-12.1419
▁迦	-12.1419
▁認	-12.1419
▁口语	-12.142
▁隐身	-12.142
▁网格	-12.1421
▁迎面	-12.1421
▁慈悲	-12.1423
▁性情	-12.1424
▁自理	-12.1425
▁銀行	-12.1427
▁一米	-12.143
▁监事	-12.143
▁大意	-12.1431
焱	-12.1431
MI	-12.1431
▁盈盈	-12.1432
▁蓬	-12.1432
▁bet	-12.1433
▁昆山	-12.1434
▁AS	-12.1434
SA	-12.1435
▁富裕	-12.1435
糕	-12.1435
▁馒头	-12.1435
恋情	-12.1438
▁版权所	-12.1439
▁洪荒	-12.144
綋	-12.1443
卵	-12.1444
噪	-12.1444
▁怪兽	-12.1445
.10	-12.1445
▁金黄	-12.1445
▁将士	-12.1445
▁侵	-12.1446
▁天际	-12.1447
▁明知	-12.1449
魁	-12.145
▁回转	-12.1453
▁双边	-12.1454
▁发呆	-12.1454
开始	-12.1455
▁喷雾	-12.1456
湡	-12.1458
▁最高人民	-12.1459
▁龙头企业	-12.1459
▁雏	-12.1459
連	-12.1459
叫声	-12.1461
▁乐天	-12.1462
▁本国	-12.1462
oc	-12.1462
掩	-12.1463
▁实实在	-12.1464
▁长短	-12.1465
▁琚	-12.1468
▁冷酷	-12.1469
▁完备	-12.147
恐	-12.1471
▁老是	-12.1472
▁分布式	-12.1474
▁收受	-12.1474
多样	-12.1474
共同体	-12.1475
▁上诉	-12.1476
▁三代	-12.1477
▁侦察	-12.1477
▁旷	-12.1478
▁芬	-12.1478
▁乐意	-12.1479
▁风波	-12.148
▁附着	-12.1481
▁腹泻	-12.1482
▁气动	-12.1482
屯	-12.1483
▁桐	-12.1485
▁安安	-12.1489
▁驰	-12.1489
▁CC	-12.149
▁留存	-12.1492
▁顶端	-12.1492
▁裁	-12.1494
▁谨	-12.1495
一切	-12.1495
桓	-12.1495
▁囊	-12.1499
▁修饰	-12.15
大哥	-12.1501
▁复试	-12.1502
▁见解	-12.1502
▁内分泌	-12.1503
交所	-12.1506
大悟	-12.1507
▁护法	-12.1507
埃	-12.1509
▁雀	-12.1512
▁植入	-12.1513
▁舟	-12.1514
▁狡	-12.1514
▁园艺	-12.1514
▁性交	-12.1514
▁储蓄	-12.1514
▁縣	-12.1518
▁YY	-12.1519
▁贰	-12.1521
▁拉萨	-12.1522
未来	-12.1523
▁潜艇	-12.1524
▁寓意	-12.1524
申请	-12.1525
▁渚	-12.1525
態	-12.1526
▁泡泡	-12.1527
▁科学研究	-12.1527
▁大选	-12.1528
▁电子书	-12.1528
▁研磨	-12.1529
▁赞成	-12.1529
▁病理	-12.153
▁水位	-12.153
▁撒娇	-12.1531
▁宾客	-12.1532
▁金花	-12.1533
▁小腿	-12.1534
ass	-12.1534
办公	-12.1534
▁驾驭	-12.1535
▁遗迹	-12.1536
广场	-12.1536
▁红木	-12.1537
▁同心	-12.1537
▁下楼	-12.1538
紅	-12.1539
撒	-12.154
成员	-12.1542
▁蓄	-12.1542
▁理所当	-12.1543
▁时报	-12.1546
▁開發	-12.1546
▁韩立	-12.1546
▁冷气	-12.1547
黄色	-12.1548
鎸	-12.1549
▁功课	-12.1551
亚迪	-12.1551
棤	-12.1552
▁急于	-12.1553
ike	-12.1553
▁這種	-12.1555
疾病	-12.1557
璺	-12.1558
娣	-12.1558
▁闭关	-12.1559
▁恐龙	-12.1559
报讯	-12.156
77	-12.156
▁绿地	-12.1561
▁上海市人民政府	-12.1563
▁用法	-12.1566
▁过期	-12.1567
不如	-12.1568
▁麻木	-12.1568
▁发声	-12.1568
▁深耕	-12.1569
▁复产	-12.157
维奇	-12.157
▁体育场	-12.1571
不舍	-12.1571
▁3074	-12.1572
勝	-12.1572
▁篡	-12.1572
▁日出	-12.1573
▁虚伪	-12.1573
▁DNA	-12.1574
▁感人	-12.1575
▁成名	-12.1575
誤	-12.1578
▁无毒	-12.1579
▁懵	-12.1579
▁媚	-12.1579
▁日渐	-12.158
34.91	-12.158
▁水稻	-12.1582
▁受过	-12.1583
▁减税	-12.1584
让人	-12.1586
▁相片	-12.1586
畏	-12.1588
▁古镇	-12.1589
▁洞穴	-12.159
▁地为	-12.1592
▁拼接	-12.1593
▁15878	-12.1596
▁食指	-12.1597
▁寶	-12.1598
▁巨型	-12.1598
眼镜	-12.1598
▁强硬	-12.1598
ph	-12.1599
▁源源不	-12.1599
虐	-12.1599
▁出路	-12.16
▁吉他	-12.16
AL	-12.1602
▁变频	-12.1603
▁椋	-12.1603
▁淡水	-12.1605
換	-12.1606
▁会谈	-12.1607
▁推薦	-12.1607
▁总面积	-12.1608
▁陡	-12.1608
▁超标	-12.1609
iv	-12.161
▁艾滋病	-12.1611
大批	-12.1613
▁取名	-12.1613
▁办好	-12.1613
▁丁香	-12.1614
▁接线	-12.1616
▁真情	-12.1616
▁迟到	-12.1618
▁岭	-12.1619
挖	-12.1621
▁滑动	-12.1621
▁邯郸	-12.1621
of	-12.1622
▁动荡	-12.1626
▁坚果	-12.1628
▁手心	-12.1631
▁吊顶	-12.1631
▁湖泊	-12.1632
變	-12.1632
诞	-12.1634
虞	-12.1635
▁真真	-12.1637
戚	-12.1638
▁领头	-12.1638
▁提拔	-12.1639
▁悠然	-12.1639
▁中国联通	-12.164
▁大吃一	-12.1642
▁岑	-12.1643
▁较长	-12.1643
▁碟	-12.1643
▁736.2	-12.1645
▁随口	-12.1645
特色	-12.1647
▁淳	-12.165
▁小雪	-12.165
▁亮度	-12.1651
▁压根	-12.1653
▁廉政	-12.1655
▁总和	-12.1656
▁淹没	-12.1657
▁嗔	-12.1657
▁之事	-12.1659
41.1	-12.1659
▁疑虑	-12.1661
▁温室	-12.1661
▁龙门	-12.1662
唯	-12.1662
▁外籍	-12.1663
▁气愤	-12.1664
瓶子	-12.1669
▁特大	-12.1669
▁菊	-12.1671
▁雪山	-12.1671
▁网贷	-12.1672
▁基督教	-12.1673
凛	-12.1673
▁三日	-12.1674
▁庆典	-12.1675
▁se	-12.1675
▁宽大	-12.1676
基地	-12.1678
▁伤感	-12.1679
岗位	-12.168
▁多样性	-12.168
实施	-12.1681
▁下周	-12.1681
▁实话	-12.1682
▁125	-12.1683
▁托运	-12.1683
▁工程施工	-12.1683
▁擅	-12.1684
▁公爵	-12.1684
▁精细化	-12.1685
▁胀	-12.1685
▁全然	-12.1686
▁敬畏	-12.1687
▁修养	-12.1688
全会	-12.1688
▁流血	-12.1689
▁武力	-12.1691
辙	-12.1692
▁入户	-12.1692
▁车里	-12.1693
▁畏	-12.1693
▁听从	-12.1696
▁全网	-12.1696
▁萎缩	-12.17
▁小狗	-12.17
▁测验	-12.17
▁大将	-12.1701
▁一地	-12.1703
▁锦标	-12.1703
▁构件	-12.1703
▁玄武	-12.1705
▁突击	-12.1709
▁定型	-12.1709
闄	-12.1711
▁守信	-12.1711
▁衰老	-12.1711
▁庭	-12.1712
讽	-12.1712
▁口头	-12.1712
▁点缀	-12.1714
柴	-12.1714
▁老三	-12.1716
熻	-12.1718
伯特	-12.1719
▁我怕	-12.172
▁道工	-12.172
▁车位	-12.1723
▁敏	-12.1723
▁污泥	-12.1723
▁五彩	-12.1724
▁存取	-12.1724
▁时至	-12.1725
飞机	-12.1725
▁胡子	-12.1727
▁压低	-12.1729
▁巨额	-12.1731
呵呵	-12.1733
▁雇主	-12.1734
灶	-12.1734
▁惊慌	-12.1737
▁俗话说	-12.1737
▁电工	-12.1737
考虑	-12.1738
▁103	-12.1738
腐	-12.1739
▁两颗	-12.1741
糟	-12.1742
生涯	-12.1743
需要	-12.1743
▁1300	-12.1744
▁伽	-12.1746
▁缺席	-12.1747
学期	-12.1747
▁扭动	-12.1748
▁涌出	-12.1749
▁误导	-12.1749
▁小花	-12.1749
婲	-12.175
猿	-12.175
▁喀	-12.1752
cc	-12.1753
▁at	-12.1753
▁略带	-12.1755
▁461.8	-12.1756
▁7446	-12.1757
▁毅	-12.1758
▁所作	-12.1758
▁好些	-12.1758
▁爱护	-12.1759
霉	-12.1759
▁特区	-12.176
▁成套	-12.176
▁感触	-12.1761
▁14948	-12.1761
▁2.4	-12.1762
▁学前	-12.1763
进一步	-12.1763
紑	-12.1763
▁渴	-12.1765
▁白菜	-12.1767
▁申请书	-12.1767
韦	-12.1767
▁市场营销	-12.1769
▁大兴	-12.177
斯基	-12.177
min	-12.177
▁自驾	-12.1771
▁魔女	-12.1771
脆	-12.1771
▁在此之	-12.1771
▁二氧化碳	-12.1772
試	-12.1776
俏	-12.1778
菁	-12.1781
▁封建	-12.1782
▁609.82	-12.1785
鳌	-12.1786
▁侵蚀	-12.1786
▁闪光	-12.1787
▁雾气	-12.1788
致敬	-12.1788
▁侵入	-12.1788
基因	-12.1788
▁绷	-12.1788
一动	-12.1788
胡乱	-12.1789
▁横扫	-12.179
▁網絡	-12.1791
▁呛	-12.1792
▁这本	-12.1792
▁禾	-12.1792
奋斗	-12.1793
▁改名	-12.1794
▁an	-12.1795
▁玲	-12.1795
植物	-12.1797
▁三宝	-12.1799
▁原型	-12.18
▁期末	-12.1802
▁其一	-12.1802
赛场	-12.1802
▁中新	-12.1803
▁大阵	-12.1806
▁灌溉	-12.1807
屠杀	-12.1808
▁凭空	-12.1808
▁四海	-12.1809
▁抚养	-12.181
▁農	-12.181
▁更深	-12.1811
▁高强	-12.1811
▁贵人	-12.1812
▁體驗	-12.1812
▁贫穷	-12.1814
作业	-12.1816
▁树叶	-12.1818
▁匪	-12.1818
▁通胀	-12.1819
▁风声	-12.182
▁华山	-12.182
.01	-12.1823
靴	-12.1823
▁繁忙	-12.1823
▁哨	-12.1827
▁高跟	-12.1827
▁淋漓	-12.1829
▁孤儿	-12.183
▁怀着	-12.1831
[...]
